, 106779
. 99277
di 59125
e 48441
a 48180
che 47464
i 35001
la 30365
è 29145
un 26273
il 25230
o 25200
are 24384
in 24332
per 19866
s@@ 18810
ato 18460
una 17627
non 15818
le 15349
to 15116
&quot; 14981
i@@ 13811
in@@ 13650
si 13605
c@@ 13303
ar@@ 13062
E 13028
d@@ 13005
t@@ 12909
er@@ 12724
l&apos; 12694
or@@ 12019
sono 11467
r@@ 11418
ano 11335
m@@ 11246
da 11156
p@@ 11097
di@@ 10707
v@@ 10679
ale 10668
f@@ 10624
es@@ 10617
av@@ 10584
at@@ 10173
u@@ 10094
b@@ 10066
del 9690
n@@ 9481
: 9458
più 9392
come 9369
ia 9340
ere 9252
con 9212
an@@ 9109
e@@ 8987
se 8984
g@@ 8979
S@@ 8964
? 8886
lo 8786
questo 8437
l@@ 8339
ta 8270
a@@ 8242
ti 8235
o@@ 8230
ol@@ 8171
io 8136
al@@ 8136
ic@@ 8123
ità 8117
im@@ 8091
della 7834
&apos; 7667
pi@@ 7523
ci 7501
con@@ 7478
it@@ 7440
am@@ 7241
os@@ 7128
azione 7106
ma 7106
as@@ 6963
ci@@ 6917
P@@ 6852
D@@ 6798
so 6794
ri@@ 6724
ate 6723
C@@ 6656
ha 6592
st@@ 6590
on@@ 6584
att@@ 6568
en@@ 6481
ati 6438
mi 6388
sc@@ 6353
us@@ 6336
amente 6270
al 6269
el@@ 6265
tr@@ 6192
te 6148
ica 6105
gi@@ 6048
enti 6017
era 5971
ore 5712
ico 5628
ando 5609
nel 5581
ata 5525
is@@ 5524
per@@ 5487
ono 5475
ot@@ 5433
ap@@ 5406
M@@ 5384
gli 5364
ente 5301
par@@ 5295
chi@@ 5276
ali 5230
do 5215
ac@@ 5121
cosa 5073
ris@@ 5010
oc@@ 4957
dei 4919
ter@@ 4876
ho 4875
om@@ 4837
z@@ 4831
Ma 4794
ad@@ 4771
ai 4700
li 4684
delle 4641
molto 4615
pos@@ 4583
re@@ 4560
ie 4543
ett@@ 4511
A@@ 4510
pr@@ 4509
-- 4462
abbiamo 4405
loro 4399
ur@@ 4367
enza 4361
questa 4350
essere 4349
qu@@ 4345
cui 4306
alla 4300
col@@ 4261
perché 4248
li@@ 4240
ent@@ 4230
N@@ 4217
T@@ 4171
anni 4149
po 4132
ec@@ 4117
anche 4112
um@@ 4104
em@@ 4096
ess@@ 4091
su@@ 4063
esso 4043
B@@ 4036
Non 4024
et@@ 4008
no 4000
zione 3985
persone 3952
G@@ 3867
fare 3865
iamo 3864
sp@@ 3862
anno 3852
cor@@ 3846
uto 3835
hanno 3834
ero 3823
uno 3793
quando 3764
ici 3759
ò 3756
amo 3748
ist@@ 3720
ura 3713
ut@@ 3672
V@@ 3655
L@@ 3603
ione 3581
E@@ 3547
solo 3544
com@@ 3526
La 3515
un@@ 3503
dell&apos; 3443
vi@@ 3439
pot@@ 3432
su 3417
endo 3380
Il 3371
ete 3368
acc@@ 3364
si@@ 3361
ov@@ 3354
così 3348
etto 3338
O@@ 3335
de@@ 3335
mondo 3331
tutto 3319
ag@@ 3317
ad 3313
tutti 3306
ti@@ 3297
ten@@ 3273
sol@@ 3271
pre@@ 3263
ante 3257
ori 3253
og@@ 3218
fac@@ 3215
un&apos; 3197
ric@@ 3181
iv@@ 3178
quello 3163
ne 3152
ire 3117
R@@ 3115
modo 3098
and@@ 3027
ch@@ 3026
ito 3009
vi 3008
à 2985
ina 2966
fatto 2958
F@@ 2949
re 2949
str@@ 2942
ino 2938
vol@@ 2923
chi 2923
ev@@ 2903
mo 2901
er 2900
h@@ 2891
sia 2881
ig@@ 2857
ento 2830
pa@@ 2824
for@@ 2822
cose 2822
inter@@ 2811
eg@@ 2806
ce 2791
pen@@ 2791
nella 2764
c&apos; 2745
ari 2726
op@@ 2700
bi@@ 2691
tra 2690
1@@ 2686
siamo 2686
I@@ 2660
ine 2651
questi 2644
min@@ 2642
ciò 2623
dov@@ 2601
mio 2589
H@@ 2572
all&apos; 2559
ul@@ 2558
contr@@ 2555
ass@@ 2530
parte 2528
noi 2515
queste 2512
olo 2502
ver@@ 2501
Quindi 2499
ora 2495
sap@@ 2492
ing@@ 2484
ed 2470
cer@@ 2469
ivo 2469
me 2450
il@@ 2438
zz@@ 2434
prima 2433
car@@ 2431
stato 2429
man@@ 2427
zioni 2420
vita 2420
me@@ 2416
anti 2416
dis@@ 2402
far@@ 2390
trov@@ 2387
ra@@ 2384
br@@ 2365
mia 2360
ven@@ 2359
id@@ 2353
sta 2351
ir@@ 2338
lu@@ 2338
ini 2322
azioni 2305
sim@@ 2301
cos@@ 2295
zi@@ 2295
diver@@ 2282
È 2260
alle 2258
ole 2254
leg@@ 2244
qui 2243
Questo 2241
-@@ 2230
se@@ 2230
cre@@ 2222
Qu@@ 2219
due 2211
ava 2211
ogni 2206
amento 2201
oi 2196
ita 2195
port@@ 2187
ani 2185
fa 2179
tan@@ 2174
gu@@ 2172
res@@ 2172
ed@@ 2154
fin@@ 2124
può 2119
almente 2101
cambi@@ 2090
iti 2085
pres@@ 2079
tre 2078
evo 2072
ile 2071
ca 2057
vis@@ 2056
In 2048
end@@ 2044
pe@@ 2035
anza 2032
mo@@ 2031
pens@@ 2024
ro@@ 2024
qualcosa 2005
iva 2005
le@@ 1999
ab@@ 1990
ite 1989
fer@@ 1978
utt@@ 1978
ast@@ 1970
gen@@ 1965
ese 1959
rit@@ 1959
etti 1957
succ@@ 1953
aff@@ 1951
bu@@ 1950
ola 1947
izz@@ 1946
co 1940
mostr@@ 1932
sa 1928
u 1923
fr@@ 1923
gr@@ 1919
cap@@ 1918
sul 1912
mente 1911
poi 1910
migli@@ 1905
dal 1902
one 1880
dove 1878
A 1876
altro 1874
zion@@ 1839
iche 1838
ser@@ 1837
por@@ 1829
met@@ 1829
ve@@ 1819
tempo 1819
l 1817
uc@@ 1813
dire 1803
qual@@ 1803
Se 1802
- 1801
inv@@ 1796
abil@@ 1783
degli 1782
an 1781
mai 1779
ra 1766
can@@ 1747
na 1742
dic@@ 1740
chiam@@ 1740
ancora 1737
diamo 1732
co@@ 1731
In@@ 1730
int@@ 1726
esi 1713
comun@@ 1711
h 1709
sulla 1704
vedere 1700
gente 1692
entr@@ 1672
eva 1671
prov@@ 1669
immag@@ 1668
ni 1664
mer@@ 1663
aggio 1661
eri 1659
pass@@ 1655
volta 1651
meno 1645
quel 1637
ioni 1635
piccol@@ 1633
Al@@ 1630
riv@@ 1611
L&apos; 1607
ice 1605
est@@ 1605
tras@@ 1594
sar@@ 1591
k@@ 1591
sal@@ 1580
divent@@ 1575
quella 1574
ogli@@ 1572
sent@@ 1568
zza 1563
rim@@ 1562
davvero 1562
... 1559
grande 1550
vostr@@ 1542
possiamo 1538
pi 1536
nostro 1535
lavoro 1528
der@@ 1527
ei 1522
prog@@ 1517
ure 1516
voi 1511
ana 1511
dopo 1506
J@@ 1503
k 1498
cl@@ 1492
I 1491
dalla 1486
cam@@ 1485
unque 1482
sempre 1477
evano 1461
eff@@ 1459
mor@@ 1451
nostra 1446
quanto 1443
erano 1443
on 1441
t 1438
dev@@ 1437
altri 1437
cont@@ 1433
otto 1427
dom@@ 1427
Ora 1426
zzo 1419
5 1418
sua 1416
spec@@ 1415
all@@ 1413
storia 1412
2@@ 1411
de 1410
suo 1409
arriv@@ 1405
viv@@ 1402
cia 1401
soci@@ 1401
detto 1398
bile 1396
te@@ 1383
lavor@@ 1383
Per 1382
bero 1377
idea 1372
reg@@ 1370
not@@ 1370
Sono 1369
inizi@@ 1368
uro 1366
ve 1355
sul@@ 1354
ili@@ 1354
d&apos; 1354
avo 1349
des@@ 1345
pl@@ 1345
stu@@ 1340
giorno 1339
é 1330
fi@@ 1327
pro@@ 1326
Perché 1326
Questa 1323
quindi 1320
bas@@ 1317
olog@@ 1315
0 1314
avere 1307
costru@@ 1304
ion@@ 1300
go 1298
uti 1298
asi 1295
tro 1293
cio 1288
interess@@ 1286
St@@ 1284
ene 1284
Ho 1283
za 1283
ario 1282
sic@@ 1276
comp@@ 1274
dere 1271
Ci 1269
nell&apos; 1268
sign@@ 1263
♫ 1263
ì 1259
problema 1256
Si 1253
TED 1250
nei 1248
aut@@ 1247
Abbiamo 1242
tutte 1241
avano 1239
ott@@ 1226
ness@@ 1226
igli@@ 1226
d 1220
ff@@ 1216
ivi 1213
Un@@ 1212
fon@@ 1211
mett@@ 1210
cerc@@ 1208
bene 1208
peri@@ 1206
conos@@ 1206
possono 1202
oggi 1199
raga@@ 1199
qualche 1194
secon@@ 1194
senza 1189
proprio 1188
sor@@ 1183
K@@ 1183
dete 1178
uom@@ 1176
pubbl@@ 1174
W@@ 1174
nostri 1173
stata 1161
iz@@ 1161
punto 1160
Grazie 1160
altra 1158
potr@@ 1156
agli@@ 1155
Le 1153
abb@@ 1148
età 1148
esempio 1142
sci@@ 1138
tipo 1135
fine 1134
guard@@ 1133
or 1132
gior@@ 1131
sos@@ 1128
uzione 1127
eb@@ 1126
ro 1125
molti 1125
rap@@ 1125
Come 1124
nelle 1123
stesso 1122
parl@@ 1116
atori 1115
du@@ 1112
cel@@ 1112
mat@@ 1110
el 1110
fat@@ 1108
cr@@ 1104
dati 1101
cres@@ 1100
mon@@ 1099
ne@@ 1098
realtà 1095
cin@@ 1094
y 1094
emente 1093
dio 1091
An@@ 1090
enzi@@ 1084
funzion@@ 1084
importante 1083
y@@ 1083
plic@@ 1079
prend@@ 1076
cal@@ 1072
if@@ 1072
fam@@ 1071
ane 1071
imento 1070
bisogno 1067
ciamo 1067
mag@@ 1067
agli 1066
cono 1064
rac@@ 1063
chio 1062
w@@ 1060
nuovo 1055
sistema 1054
U@@ 1053
tor@@ 1051
oso 1051
Quando 1051
vel@@ 1050
ific@@ 1048
cominci@@ 1048
ultim@@ 1047
rei 1046
prod@@ 1046
ove 1045
tu@@ 1045
asp@@ 1041
ved@@ 1040
; 1032
pol@@ 1028
form@@ 1027
.@@ 1026
sist@@ 1025
fuori 1022
! 1021
ill@@ 1021
momento 1018
arsi 1018
sembr@@ 1016
bambini 1015
000 1015
dall&apos; 1014
gono 1013
and 1011
Mi 1010
ede 1007
ace 1006
las@@ 1000
bil@@ 996
posto 994
present@@ 993
impar@@ 989
econom@@ 987
circa 985
andare 984
Così 983
centr@@ 982
svilup@@ 981
ant@@ 981
tim@@ 980
altre 978
negli 976
zzi 975
oco 975
volte 974
tem@@ 972
Ed 970
sione 969
Un 969
mal@@ 968
rebbe 959
oni 956
visto 956
trat@@ 955
viene 954
proc@@ 953
rend@@ 951
inci@@ 950
segu@@ 947
Ch@@ 946
nu@@ 945
ob@@ 943
disc@@ 941
m 941
aria 940
gg@@ 936
lun@@ 933
ece 931
Ecco 930
bili 929
serv@@ 928
az@@ 927
rel@@ 926
erra 926
condi@@ 926
mar@@ 925
attraver@@ 925
ea 923
casa 923
pian@@ 923
oli 922
tut@@ 921
dur@@ 919
s 914
aveva 914
itu@@ 914
rig@@ 914
del@@ 911
que 909
anim@@ 907
rius@@ 904
ricer@@ 902
quel@@ 902
sett@@ 901
bel@@ 901
num@@ 900
spi@@ 897
mis@@ 897
ambi@@ 897
cu@@ 897
val@@ 897
ni@@ 896
ello 895
diffic@@ 894
enze 894
alizz@@ 893
acqua 893
aiut@@ 891
agg@@ 890
fil@@ 890
propr@@ 890
dello 888
dice 888
maggi@@ 887
donne 886
creare 886
ind@@ 886
ista 886
sopr@@ 885
città 885
atore 884
via 883
fosse 883
gener@@ 883
ili 882
4@@ 881
etro 880
od@@ 880
prim@@ 879
capire 879
Talk 878
nuov@@ 878
ive 877
vero 876
tel@@ 874
mentre 874
pros@@ 872
imo 867
credo 865
vic@@ 865
he 864
stanno 864
abbi@@ 863
mus@@ 863
ici@@ 861
tanto 859
pensare 859
emo 858
cervello 858
alcuni 857
tecnologia 856
potete 854
milioni 854
grup@@ 852
anda 852
usa 849
nostre 849
ret@@ 848
iglia 847
abile 846
pon@@ 846
po@@ 846
primo 846
dia 844
stiamo 843
esse 841
fic@@ 841
glio 841
Subtitles 840
Transcript 840
fino 839
qualcuno 838
ta@@ 837
2 837
sper@@ 835
3@@ 834
forse 834
possibile 832
app@@ 830
prot@@ 830
ismo 828
ifica 828
indi@@ 826
allo 825
over@@ 820
vogli@@ 819
10 814
pag@@ 812
Ques@@ 812
pes@@ 811
evamo 811
en 810
fis@@ 807
aggiun@@ 806
00 806
rete 804
gere 803
fond@@ 803
mot@@ 802
evol@@ 801
real@@ 801
stati 801
insegn@@ 800
fl@@ 800
insieme 800
parlare 799
miei 799
voglio 797
continu@@ 797
quest@@ 796
trop@@ 796
ge 795
osi 794
energ@@ 791
quelle 791
Una 790
% 788
differ@@ 784
informa@@ 782
mili@@ 781
vu@@ 781
grandi 779
ont@@ 776
gn@@ 776
ette 776
potrebbe 775
stess@@ 774
ult@@ 772
sarebbe 771
art@@ 771
lui 771
med@@ 771
macch@@ 770
sen@@ 770
avete 770
scu@@ 769
ide@@ 767
elle 767
stessa 767
ord@@ 766
Pen@@ 766
C&apos; 765
Per@@ 765
sempl@@ 763
sem@@ 763
decis@@ 763
sei 762
isce 761
ogg@@ 758
mol@@ 757
emi 757
adre 756
molte 755
forma 754
già 753
organ@@ 752
ada 748
8@@ 747
problemi 746
ona 744
senso 742
prob@@ 742
arci 741
rem@@ 741
eta 740
abor@@ 739
ca@@ 737
tri 737
super@@ 737
grado 737
Cos@@ 736
allora 736
dir@@ 735
fut@@ 735
verso 735
doll@@ 734
veramente 734
fanno 733
persona 733
arvi 732
uta 732
pat@@ 731
dobbiamo 731
izione 727
stor@@ 726
caso 726
essi 725
1 723
este 722
prendere 722
nat@@ 722
scoper@@ 722
etta 721
rag@@ 720
ebbe 719
quale 719
erà 717
iniz@@ 717
ù 716
lì 715
polit@@ 711
tes@@ 709
bo 705
bar@@ 704
nor@@ 703
pun@@ 701
libr@@ 701
univer@@ 697
pren@@ 694
compl@@ 694
oll@@ 693
consi@@ 692
inf@@ 692
nel@@ 691
9@@ 691
gover@@ 691
g 691
guar@@ 687
computer 685
19@@ 684
tà 682
segn@@ 682
4 681
partic@@ 677
so@@ 677
5@@ 675
6@@ 674
pu@@ 673
atter@@ 673
ment@@ 672
ber@@ 672
person@@ 671
3 667
press@@ 661
occu@@ 660
7@@ 657
coll@@ 655
alcun@@ 651
Y@@ 649
fron@@ 647
possi@@ 643
sch@@ 640
don@@ 640
hi 636
incredi@@ 633
us 633
part@@ 632
men@@ 631
au@@ 628
8 625
ute 624
50 624
amp@@ 622
Be@@ 621
tit@@ 619
20 618
itt@@ 618
fo@@ 617
ran@@ 616
ard@@ 611
ben@@ 608
tri@@ 606
mess@@ 604
far 603
capac@@ 603
program@@ 595
ell@@ 595
ang@@ 594
0@@ 589
’ 588
natur@@ 588
ze 586
dist@@ 586
lav@@ 586
cas@@ 585
pop@@ 585
agn@@ 585
alc@@ 582
ari@@ 580
ai@@ 580
lo@@ 577
ma@@ 576
arg@@ 576
strum@@ 574
cur@@ 574
distr@@ 572
bamb@@ 572
complet@@ 571
state 569
oro 566
fel@@ 566
ren@@ 565
oper@@ 563
rec@@ 563
n 562
Con@@ 562
pas@@ 559
stud@@ 558
aggi@@ 556
cis@@ 555
cent@@ 553
cul@@ 552
vello 551
dem@@ 550
fu@@ 547
fos@@ 545
amb@@ 545
is 543
glob@@ 537
cir@@ 537
6 533
det@@ 532
lig@@ 531
sec@@ 529
fig@@ 528
lin@@ 528
ep@@ 528
opo 525
reb@@ 525
ament@@ 525
as 523
ru@@ 521
Africa 519
7 519
sin@@ 517
am 516
p 514
prop@@ 512
ché 512
ef@@ 509
ordin@@ 509
ros@@ 507
ar 506
lan@@ 506
necess@@ 505
importan@@ 500
ade 498
no@@ 496
perc@@ 496
som@@ 492
emat@@ 491
defin@@ 490
ome 490
ing 488
be@@ 486
es 486
bo@@ 484
razie 484
prof@@ 483
loc@@ 482
bl@@ 482
quan@@ 481
ustr@@ 479
tra@@ 479
30 478
vir@@ 477
innov@@ 475
ande 474
ee 472
gra@@ 471
media 471
est 468
9 464
b 461
ose 460
lim@@ 459
pan@@ 458
creat@@ 453
materi@@ 451
gh@@ 451
off@@ 450
ub@@ 449
viol@@ 437
ogn@@ 437
mic@@ 436
bre@@ 436
intr@@ 435
pio 432
ou@@ 427
non@@ 427
son 424
ide 422
200@@ 421
tecnolog@@ 420
ori@@ 417
arch@@ 415
100 415
mov@@ 415
video 413
mil@@ 410
ident@@ 410
Ar@@ 407
20@@ 406
fort@@ 404
tru@@ 404
O 403
trem@@ 401
be 401
neur@@ 400
mi@@ 398
cat@@ 392
S 392
den@@ 391
ave 390
mem@@ 390
x 388
individu@@ 386
No 385
tur@@ 385
New 385
oce@@ 385
ard 384
x@@ 382
tec@@ 380
dig@@ 380
equ@@ 380
tal@@ 377
inc@@ 377
biamo 374
cell@@ 373
sing@@ 372
dr@@ 371
ase 370
go@@ 370
hi@@ 367
cit@@ 367
fun@@ 367
mos@@ 365
opportun@@ 360
&#93; 359
&#91; 358
j@@ 355
raz@@ 355
ay 355
iver@@ 350
America 349
into 347
Internet 347
lead@@ 341
dav@@ 338
mac@@ 337
fre@@ 336
of@@ 334
design 332
,@@ 332
pic@@ 330
cond@@ 330
D 328
ame 326
ram@@ 326
ostr@@ 322
diff@@ 320
gre@@ 316
org@@ 316
rat@@ 314
ema 312
respon@@ 309
C 309
fe@@ 308
ce@@ 305
comm@@ 294
Ne@@ 291
clu@@ 290
acqu@@ 289
K 289
line 288
scient@@ 288
altr@@ 286
all 285
ner 285
anc@@ 283
aver@@ 278
th@@ 278
L 277
pers@@ 274
ue 269
we@@ 269
educ@@ 266
inform@@ 266
G 265
cc@@ 264
♪ 261
c 260
sel@@ 260
V 258
citt@@ 257
do@@ 256
deci@@ 254
erg@@ 253
vent@@ 253
Z@@ 252
ative 251
to@@ 251
z 250
ak@@ 249
ter 245
esem@@ 244
r 242
doc@@ 241
bor@@ 240
spe@@ 238
forma@@ 238
B 237
ug@@ 235
af@@ 230
oo@@ 230
inn@@ 229
T 226
M 226
eve 224
sup@@ 223
chil@@ 216
man 215
sv@@ 213
et 207
it 207
ol 205
sum@@ 205
econ@@ 203
gran@@ 202
bisog@@ 201
he@@ 201
sm@@ 199
sh@@ 192
ey 191
impor@@ 190
at 188
time 188
f 187
bis@@ 187
attr@@ 187
ay@@ 182
” 181
Th@@ 181
eri@@ 179
inst@@ 178
id 176
ill 174
ah 174
entre 173
quot@@ 172
bus@@ 171
fol@@ 170
tw@@ 169
um 167
up@@ 166
TE@@ 166
ex@@ 166
“ 164
data 163
ity 162
case 160
ture 155
gli@@ 154
ke 153
X@@ 151
eme 151
ago 151
net 150
ack@@ 147
R 144
ph@@ 143
sur@@ 143
Amer@@ 142
sub@@ 142
care 142
ess 141
iness 140
– 140
ry 140
vide@@ 137
eng@@ 135
ers 135
e-@@ 135
desig@@ 133
P 133
muc@@ 132
oun@@ 132
wit@@ 131
ans@@ 131
use 130
contin@@ 130
age 129
° 128
pret@@ 126
mom@@ 121
H 120
So 119
our@@ 119
bot@@ 119
ook 117
ch 116
/ 116
star@@ 115
ly 114
by 113
land 112
la@@ 112
ste@@ 111
tre@@ 111
qualc@@ 109
ship 108
ong 108
ion 107
X 107
of 107
th 106
bra@@ 105
ation 105
F 104
w 102
lif@@ 101
ic 101
cora 100
lob@@ 100
incre@@ 99
our 97
pre 96
Inter@@ 96
q 96
ood 95
ach@@ 95
ional 93
v 93
The 91
ir 90
fir@@ 90
ow 89
pub@@ 88
get 88
N 88
ack 87
les 87
wor@@ 87
ans 86
ear@@ 85
sa@@ 85
ick@@ 82
ever@@ 81
ong@@ 80
— 80
ot 79
low 79
ey@@ 78
W 78
king 77
U 77
my 75
.. 75
work 75
ause 75
produc@@ 74
end 74
ool 74
mark@@ 73
ell 73
Q@@ 73
ance 71
ary 71
comput@@ 69
om 69
up 66
gett@@ 66
Wh@@ 65
&@@ 64
ins 64
trans@@ 63
nolog@@ 63
ence 62
é@@ 62
the 61
sk@@ 60
ld 59
ple 58
aga@@ 58
ks 58
than 57
dre@@ 56
apos@@ 56
der 55
ent 53
ast 53
ques@@ 51
ds 51
create 50
the@@ 49
tog@@ 49
right 49
ates 48
od 48
igh@@ 47
opport@@ 47
ant 47
ones 46
ws 45
plan@@ 45
ect@@ 45
bec@@ 44
wn 44
Afr@@ 44
J 44
cco 43
show 43
st 43
ú 43
over 42
talk 42
ther 41
probl@@ 41
fa@@ 41
out@@ 41
$ 40
also 40
oul@@ 40
put 40
back 39
ound 39
ts 39
even 39
ut 39
well 38
war@@ 38
ope 38
ich 37
ise 36
ber 36
had 35
ory 34
Y 34
ty 34
Tran@@ 33
her 33
ble 33
wer 32
,000 32
ical 31
» 31
+ 31
way 30
É 30
red 30
ics 30
ps 30
int 30
« 30
á 30
ilup@@ 29
any@@ 28
ight 28
Ѐ 27
out 26
ist 26
ach 26
sy@@ 25
í 25
any 24
for 24
wi@@ 24
ther@@ 23
… 23
@ 23
chan@@ 23
don 23
ating 23
we 23
ain 23
ou 23
off 22
bit 22
let 22
hum@@ 22
act@@ 22
ater 21
air 21
ep 21
ó 21
oug@@ 21
more 21
each 20
fri@@ 20
) 20
water 20
ies 20
ement 20
wan@@ 20
ke@@ 20
how 20
imag@@ 20
# 20
q@@ 19
bet@@ 19
ank 19
liv@@ 19
ings 19
ys 18
ject 18
à@@ 18
ial 18
stem 18
è@@ 18
ment 18
ree 18
ft 18
ns 18
ars 17
wr@@ 17
ind 17
ves 17
Bec@@ 17
hal@@ 17
ons 17
ets 17
thr@@ 17
tion 16
= 16
res 16
j 16
_ 16
´ 15
Z 15
ally 15
old 15
wer@@ 15
try 15
sion 15
á@@ 15
&apos;@@ 14
wh@@ 14
jo@@ 14
* 14
indi 14
ding 14
power 14
ors 13
sho@@ 13
ust 13
ness 13
Q 13
read@@ 13
ever 13
nec@@ 13
í@@ 13
ms 13
reas@@ 13
loo@@ 13
insi@@ 12
act 12
ect 12
hap@@ 12
ited 12
lem 12
ö@@ 12
 12
Now 11
own 11
its 11
ous@@ 11
ning 11
hel@@ 11
ces 11
etter 10
able 10
big 10
ely 10
ous 10
ting 10
ions 9
ì@@ 9
now 9
ution 9
ition 9
done 9
side 9
ily 9
vidu@@ 8
ask 8
alk 8
ough 8
life 8
if 8
You 8
ents 8
fore 8
look 7
ye@@ 7
Sub@@ 7
rom 7
ations 7
may@@ 7
live 7
face 7
ã@@ 7
chang@@ 6
ids 6
What 6
ands 6
my@@ 6
him 6
ç@@ 6
als 6
ould 6
shi@@ 6
point 6
room 6
here 6
day 6
ities 6
coun@@ 6
ll 6
say 6
ó@@ 6
( 5
commun@@ 5
ays 5
ated 5
aid 5
kes 5
this 5
ful 5
light 5
country 5
pt 5
lear@@ 4
under@@ 4
script 4
will 4
give 4
thing 4
ò@@ 4
you 4
cour@@ 4
They 4
If 4
down 4
working 4
kind 4
dren 4
ñ@@ 4
see 4
lot 4
ody 4
ded 4
ä@@ 4
ø@@ 4
think 4
buil@@ 4
ism 4
world 4
́ 4
­ 4
nex@@ 3
beg@@ 3
esting 3
ically 3
four 3
story 3
that 3
from 3
ittle 3
call@@ 3
wing 3
ked 3
‘ 3
ć 3
ize 3
scri@@ 3
where 3
school 3
like 3
¼ 2
lion 2
€ 2
part 2
How 2
some 2
`@@ 2
away 2
person 2
love 2
have 2
other 2
change 2
kno@@ 2
ü@@ 2
ê@@ 2
ects 2
self 2
want 2
wom@@ 2
call 2
^ 2
can 2
know 2
but 2
new 2
many 2
with 2
beli@@ 2
Ó@@ 2
through 2
struc@@ 2
thin@@ 2
ying 2
ū@@ 2
Á@@ 2
hav@@ 2
next 1
We 1
™ 1
² 1
ways 1
And 1
nostr@@ 1
® 1
good 1
ž@@ 1
ѐ 1
¥ 1
less 1
technolog@@ 1
â@@ 1
real 1
nd 1
was 1
ned 1
very 1
your 1
ween 1
ular 1
ends 1
information 1
ś@@ 1
gro@@ 1
bbiamo 1
got 1
went 1
ï@@ 1
ā@@ 1
problem 1
ought 1
kids 1
³ 1
¾ 1
dn 1
ë@@ 1
oday 1
ȏ@@ 1
 1
something 1
then 1
─ 1
question 1
ized 1
some@@ 1
form 1
Well 1
ably 1
take 1
what 1
might 1
them 1
ʿ@@ 1
place 1
last 1
only 1
‒ 1
ople 1
which 1
years 1
need 1
æ@@ 1
ø 1
hear@@ 1
― 1
ě@@ 1
giv@@ 1
But 1
things 1
too 1
aying 1
with@@ 1
There 1
may 1
not 1
every@@ 1
thinking 1
tell 1
about 1
ht 1
˚ 1
ł@@ 1
ŧ@@ 1
they 1
happen@@ 1
when 1
human 1
every 1
æ 1
º 1
made 1
