, 121798
. 99593
the 78566
to 49584
of 46094
and 44136
a 42286
that 35467
I 32431
in 30248
is 25746
you 24855
it 24150
&apos;s 22269
we 21733
And 16809
this 16195
&quot; 14081
was 11929
for 11487
on 11481
are 11075
have 10960
they 10488
-- 9945
with 9657
can 9222
? 9047
&apos;t 8900
what 8662
So 8606
about 8455
be 8191
as 8188
at 7949
all 7440
: 7355
an 7273
not 7077
do 6893
or 6635
there 6612
one 6551
&apos;re 6542
people 6359
my 6339
like 6299
It 6234
from 6125
ing 6088
so 6003
but 5718
our 5569
just 5312
We 5178
The 5123
ed 5038
But 5006
out 5002
these 4919
if 4909
me 4824
by 4799
very 4691
them 4618
up 4547
know 4526
going 4512
when 4348
more 4342
because 4297
he 4278
us 4269
es 4261
had 4245
who 4078
their 4035
think 4028
how 3962
were 3954
see 3939
which 3895
your 3860
really 3830
get 3756
would 3704
-@@ 3675
&apos;ve 3665
time 3534
world 3500
&apos;m 3489
has 3400
here 3369
then 3358
way 3353
This 3323
You 3300
s 3274
some 3210
actually 3200
re@@ 3184
into 3174
don 3080
years 3071
ation 3071
y 3031
er 3029
will 2972
where 2971
now 2958
things 2916
other 2885
Now 2813
go 2798
could 2796
want 2767
al 2750
been 2697
h@@ 2692
They 2692
S@@ 2679
make 2658
said 2459
un@@ 2454
than 2439
those 2431
something 2418
thing 2418
right 2411
ers 2370
able 2339
much 2305
no 2290
first 2277
t@@ 2254
over 2207
also 2206
got 2192
his 2164
work 2153
little 2129
two 2122
say 2105
In 2101
b@@ 2100
s@@ 2097
look 2096
t 2095
That 2086
life 2084
only 2059
in@@ 2055
w@@ 2050
ate 2046
back 2035
What 2019
most 2019
she 2012
e@@ 1985
even 1958
p@@ 1921
need 1912
lot 1902
y@@ 1899
take 1891
new 1866
many 1857
her 1825
M@@ 1824
B@@ 1805
st@@ 1792
kind 1790
C@@ 1790
d@@ 1788
around 1755
k@@ 1752
did 1750
use 1726
its 1722
There 1713
ic 1712
through 1706
a@@ 1706
good 1705
&apos;ll 1693
come 1673
down 1671
different 1661
H@@ 1645
day 1620
A@@ 1618
g@@ 1615
ent 1612
ly 1596
same 1549
L@@ 1548
every 1538
l@@ 1536
He 1531
al@@ 1521
Well 1519
being 1517
; 1515
it@@ 1505
put 1493
If 1489
f@@ 1485
c@@ 1480
T@@ 1476
en 1475
ated 1461
doing 1457
P@@ 1437
th@@ 1436
ch@@ 1434
ts 1430
R@@ 1415
en@@ 1401
de@@ 1397
called 1396
D@@ 1396
n@@ 1390
r@@ 1359
made 1355
sh@@ 1355
percent 1339
F@@ 1334
♫ 1332
change 1322
at@@ 1319
talk 1314
three 1302
i@@ 1302
N@@ 1301
er@@ 1299
age 1299
well 1298
&apos;d 1298
any 1287
ex@@ 1286
or@@ 1286
tell 1285
m@@ 1278
p 1263
ar@@ 1255
human 1248
ad@@ 1246
A 1245
year 1244
why 1244
G@@ 1241
didn 1238
own 1223
find 1222
ations 1222
TED 1217
el@@ 1217
le 1204
ted 1202
o@@ 1200
fact 1199
ks 1196
idea 1193
today 1189
e 1189
m 1179
let 1168
should 1145
after 1130
started 1126
an@@ 1125
better 1124
ic@@ 1108
ally 1101
last 1095
place 1090
before 1088
great 1086
might 1085
op@@ 1078
important 1077
give 1074
ever 1074
problem 1070
Thank 1070
thought 1064
never 1063
am@@ 1059
K@@ 1059
off 1047
another 1042
story 1038
went 1035
ion 1032
him 1029
still 1029
course 1027
used 1022
big 1019
ac@@ 1015
j@@ 1012
et@@ 1012
on@@ 1009
dis@@ 1005
ine 1002
show 1000
E@@ 998
ol@@ 998
few 996
part 995
bit 990
d 988
together 986
J@@ 984
ity 982
ago 981
end 980
ating 972
k 969
brain 969
start 966
as@@ 963
system 960
am 958
data 955
came 953
does 950
again 944
ous 943
ab@@ 943
water 941
next 940
ded 937
try 936
When 932
each 930
em@@ 926
ors 926
ive 925
between 920
est 916
technology 907
How 905
too 905
&apos; 903
found 898
Talk 896
u@@ 896
king 896
women 896
tr@@ 894
di@@ 894
mean 890
ant 870
looking 870
ds 860
ar 860
et 856
using 855
man 853
less 848
Because 845
wanted 844
point 844
ics 843
ical 841
Subtitles 840
Transcript 840
ence 840
long 840
understand 840
doesn 834
ul@@ 834
ance 832
inter@@ 830
os@@ 825
O@@ 824
love 822
sort 818
example 818
done 812
question 810
call 810
pl@@ 808
im@@ 807
ag@@ 806
live 805
help 801
ist 798
person 795
h 794
working 793
power 789
ary 789
away 788
ents 787
ies 785
school 782
may 778
red 777
real 776
trying 774
ap@@ 773
old 773
als 772
sp@@ 771
! 771
always 769
children 766
ent@@ 765
ans 760
million 757
is@@ 749
W@@ 749
es@@ 748
ri@@ 748
v@@ 747
whole 746
thinking 745
country 740
ely 739
information 737
co@@ 736
light 731
four 729
10 729
feel 729
ur@@ 728
dr@@ 728
believe 728
g 728
be@@ 724
kids 724
ph@@ 721
I@@ 717
means 712
took 710
money 709
ir@@ 708
everything 707
become 707
comes 705
create 705
com@@ 703
con@@ 702
maybe 699
se@@ 699
le@@ 699
ment 697
ically 697
b 696
po@@ 691
five 689
n 688
um@@ 685
ter 684
making 684
One 682
ro@@ 679
li@@ 678
om@@ 675
number 673
design 671
small 670
getting 670
home 666
ked 664
bl@@ 661
energy 658
il@@ 657
sense 653
ways 650
ut@@ 649
room 649
side 648
th 647
future 646
best 643
si@@ 641
z@@ 640
says 639
ings 639
space 638
My 638
building 638
countries 637
ask 637
str@@ 634
science 634
enough 633
set 631
talking 631
times 628
Here 627
ice 623
cl@@ 621
body 620
coming 619
el 619
second 614
quite 613
se 611
Why 611
ins 610
ting 608
She 606
food 606
e-@@ 605
happened 605
pr@@ 604
ou@@ 603
social 603
cr@@ 602
x 602
without 600
lives 600
men 600
Africa 597
build 597
form 596
interesting 595
These 594
ability 594
ke 594
probably 593
ness 593
across 591
anything 590
seen 590
play 590
makes 588
left 586
Let 585
pe@@ 584
told 578
20 578
bi@@ 578
per@@ 577
moment 576
fl@@ 575
ates 574
case 574
ot@@ 571
stuff 571
ec@@ 570
gr@@ 570
such 568
living 568
No 568
happen 567
family 566
half 565
over@@ 565
dollars 563
learn 561
for@@ 559
asked 550
simple 547
care 546
pretty 545
goes 545
while 545
hard 544
um 543
saw 542
.@@ 541
top 538
having 531
trans@@ 530
young 527
ty 526
else 526
sc@@ 526
ch 525
days 524
ions 524
For 524
ism 523
As 523
per 520
picture 520
ding 520
far 520
lo@@ 519
city 519
later 518
computer 517
move 515
ti@@ 514
mind 514
hand 513
les 512
up@@ 511
community 511
tion 510
order 509
problems 509
ets 507
ones 507
3@@ 506
par@@ 505
line 505
public 505
happens 504
possible 504
ra@@ 503
bad 503
process 502
led 501
nothing 501
c 501
face 500
l 498
experience 498
pi@@ 496
global 495
ta@@ 494
oc@@ 494
reason 493
yet 493
book 493
ition 492
health 492
words 491
ideas 490
rec@@ 490
uc@@ 489
both 489
res@@ 489
ed@@ 489
ob@@ 488
son 488
car 486
within 486
looks 486
already 485
art 485
almost 484
Earth 482
ay 480
history 480
inside 479
planet 479
someone 479
wrong 478
des 478
New 477
myself 477
V@@ 476
saying 474
basically 473
ities 473
&#93; 473
answer 472
single 472
&#91; 471
act 470
cor@@ 470
’ 470
we@@ 470
whether 469
ement 469
w 467
once 467
4@@ 467
sure 466
ne@@ 465
sub@@ 465
high 465
sk@@ 465
ter@@ 465
United 463
bo@@ 462
ble 462
often 462
car@@ 462
keep 461
to@@ 460
read 459
hope 458
heard 458
ists 457
billion 456
o 456
mon@@ 455
ia 454
ative 453
business 452
All 452
built 451
land 451
ast@@ 450
cells 450
stories 448
months 448
government 446
true 445
30 444
matter 444
pre@@ 444
remember 444
night 443
amazing 443
ad 442
though 442
under 441
group 441
looked 441
est@@ 441
project 440
br@@ 440
control 438
Al@@ 438
friends 438
tions 437
50 437
ess@@ 435
Internet 434
qu@@ 433
ful 433
x@@ 432
att@@ 432
ure 430
id 430
ying 429
des@@ 429
U@@ 429
job 428
og@@ 428
imagine 428
ected 426
works 426
word 426
der 425
guy 425
head 425
f 424
couple 423
open 423
beautiful 423
piece 422
places 422
us@@ 422
knew 421
gets 421
and@@ 420
... 419
six 419
isn 419
child 419
turn 418
music 416
bring 415
States 414
fr@@ 414
out@@ 414
ons 413
wasn 412
OK 411
ws 409
front 408
language 408
until 407
ined 407
research 407
house 407
against 407
ourselves 406
ill 406
woman 406
il 405
happening 405
0s 404
America 403
ide 403
od@@ 403
Th@@ 403
model 402
share 402
run 402
taking 402
stop 401
man@@ 401
ig@@ 400
learned 399
state 398
mis@@ 397
animals 397
view 396
ect 396
study 395
everybody 395
education 395
ass@@ 394
completely 393
ite 392
ov@@ 392
species 391
— 391
mar@@ 390
ev@@ 390
av@@ 389
level 388
became 387
universe 387
ge 386
min@@ 386
video 386
must 385
huge 384
iv@@ 384
ang@@ 384
ris@@ 383
ma@@ 383
American 383
cancer 383
turns 382
ep@@ 382
decided 381
itself 381
Sh@@ 380
ens 380
te@@ 379
he@@ 379
exactly 379
St@@ 379
ps 378
su@@ 377
nature 377
ing@@ 377
sometimes 376
ize 375
since 374
somebody 374
100 374
heart 374
Y@@ 374
happy 374
kinds 372
past 372
ling 371
aw@@ 370
large 370
low 370
gu@@ 370
particular 369
questions 368
society 368
ms 367
rather 367
20@@ 366
others 366
name 365
hours 365
ast 364
pan@@ 364
everyone 364
19@@ 363
Then 363
early 363
turned 363
God 363
game 362
go@@ 362
air 361
disease 361
hear 360
students 360
war 360
minutes 358
along 357
wing 356
de 356
couldn 355
mo@@ 355
comm@@ 354
fe@@ 354
least 354
ge@@ 352
i 351
takes 350
pos@@ 350
difference 350
sound 350
Oh 349
created 349
shows 349
under@@ 348
ste@@ 348
behind 348
hy@@ 347
key 347
systems 346
based 346
themselves 345
worked 345
war@@ 345
5@@ 344
wh@@ 344
century 343
eng@@ 343
free 343
India 343
self-@@ 342
ber 342
ore 341
cities 340
her@@ 340
if@@ 340
changed 340
known 340
figure 340
sion 339
outside 339
needs 339
company 339
oo@@ 339
ce 338
fish 338
environment 338
third 338
ments 337
har@@ 337
taken 337
ously 337
Okay 337
reg@@ 336
rel@@ 336
no@@ 335
ry 335
ear@@ 334
machine 333
mat@@ 333
me@@ 333
ak@@ 333
mother 333
entire 332
del@@ 332
fi@@ 331
won 330
guys 330
int@@ 330
thousands 329
natural 329
ots 328
market 328
instead 328
father 328
id@@ 327
cell 327
lim@@ 327
powerful 327
ial 326
news 324
Ch@@ 324
lots 323
learning 323
ill@@ 322
off@@ 322
den 322
flo@@ 321
difficult 321
15 320
area 320
At 319
Or 319
population 318
sur@@ 318
phone 318
China 318
bur@@ 317
so@@ 317
given 317
ory 316
prot@@ 316
bu@@ 315
ey 315
fin@@ 314
ives 314
ator 314
local 313
ats 313
perhaps 313
gave 312
needed 312
ue 312
Is 311
began 311
,000 310
size 310
paper 309
ection 309
hold 309
hands 309
pa@@ 309
economic 309
close 309
leave 308
An@@ 308
Wh@@ 307
parents 307
2 306
seven 306
ran@@ 306
test 305
ars 305
yourself 305
black 304
beginning 304
seeing 304
ick@@ 303
Ar@@ 303
walk 303
sym@@ 303
ining 302
ning 302
1@@ 302
gener@@ 301
ecting 301
image 301
cannot 300
1 300
certain 300
ion@@ 300
friend 300
finally 299
felt 299
y-@@ 299
ist@@ 298
moving 298
ile 298
ands 298
tra@@ 298
ground 297
Do 297
eyes 297
igh@@ 297
ect@@ 297
grow 296
ingly 295
cap@@ 295
cu@@ 295
parts 295
culture 295
ain 294
companies 294
stor@@ 294
cost 293
spent 293
team 293
ase 293
rest 293
form@@ 293
easy 292
ose 292
ered 291
do@@ 291
whatever 291
Re@@ 291
ack 291
realized 291
end@@ 290
ber@@ 290
7@@ 290
To 289
York 289
ight 289
scale 289
os 288
ick 288
media 288
full 288
during 287
ess 286
poor 286
field 286
ver@@ 286
U.S. 285
longer 285
ve 285
terms 284
ends 284
economy 284
deal 282
humans 282
the@@ 282
middle 282
ology 281
common 281
8 280
wonderful 279
ages 279
els 278
Some 278
lost 278
action 277
ian 277
interested 277
oil 276
Yeah 276
fun@@ 275
ound 275
9@@ 274
ment@@ 274
ters 274
telling 274
simply 274
reality 274
clear 274
la@@ 274
born 274
eight 273
table 273
part@@ 273
changes 273
ively 273
ency 272
political 272
tan@@ 272
hi@@ 272
week 272
ocean 272
death 272
gl@@ 272
personal 271
ently 271
giving 271
uses 271
z 271
te 271
met 271
challenge 271
air@@ 270
People 270
ish 270
sil@@ 268
ack@@ 268
force 268
program 267
inf@@ 267
all@@ 267
die 267
2@@ 266
loc@@ 266
CA 266
pay 265
Ma@@ 265
opportunity 265
tri@@ 265
sel@@ 265
ard 265
ants 265
growth 265
sol@@ 265
ines 265
knowledge 264
ship 264
tried 264
complex 264
feeling 264
sitting 264
wor@@ 264
r 263
8@@ 263
amount 263
ution 262
Z@@ 262
feet 262
stage 262
In@@ 261
lif@@ 261
buy 261
Our 261
6@@ 261
wi@@ 261
por@@ 260
spend 260
animal 260
♪ 260
areas 259
ches 259
quickly 259
tiny 259
ves 259
risk 259
inv@@ 258
ized 258
quality 258
either 258
wn 258
growing 258
auth@@ 258
climate 257
Can 257
issues 257
ality 256
weeks 256
der@@ 256
ns 255
physical 255
sup@@ 255
structure 254
izing 254
bar@@ 254
0,000 254
hor@@ 254
gone 254
fly 253
eat 253
ke@@ 253
vis@@ 252
ned 252
On 252
behavior 252
ai@@ 251
pur@@ 251
step 251
write 251
B 251
incredible 251
patients 251
likely 251
40 250
forward 250
adv@@ 250
support 250
mus@@ 250
ace 249
value 249
DNA 249
scientists 249
ru@@ 248
pol@@ 248
Yes 248
tools 248
sens@@ 248
ath@@ 247
books 247
Just 247
0@@ 247
short 246
u 246
rat@@ 246
white 246
attention 246
audience 245
realize 244
understanding 244
au@@ 244
evolution 243
Be@@ 243
alone 243
individual 243
cer@@ 242
ths 242
contr@@ 242
ay@@ 242
millions 242
4 242
ie 242
green 241
numbers 241
3 241
showed 241
gives 241
Un@@ 240
aff@@ 240
hundreds 240
ope 240
ow@@ 239
literally 239
ut 239
speak 239
hand@@ 238
average 237
sea 237
wouldn 237
access 237
my@@ 237
World 236
ker 236
S 235
discovered 235
theory 235
ories 235
eb@@ 234
ame 234
map 234
Not 234
rate 234
normal 234
cur@@ 234
fast 233
solve 232
bed 232
developed 232
Right 232
cars 231
cut 231
technologies 231
law 231
images 230
issue 230
brought 230
pt 230
wrote 230
af@@ 230
seem 230
electr@@ 230
designed 229
moved 229
fil@@ 229
creating 228
pen@@ 228
changing 228
pass@@ 228
pat@@ 228
vision 227
art@@ 227
asking 227
ze 226
rap@@ 226
surface 226
focus 226
ban@@ 226
national 226
developing 225
rem@@ 225
prov@@ 225
6 225
computers 225
che@@ 225
starting 225
produce 224
app@@ 224
D 224
9 224
blood 224
baby 224
Con@@ 223
ash@@ 223
ering 223
anyone 223
evidence 223
movement 223
pic@@ 223
material 222
nice 222
ther@@ 222
ca@@ 222
late 222
South 222
far@@ 221
box 221
watch 221
coun@@ 220
ak 220
fear 220
Mar@@ 220
can@@ 220
For@@ 219
voice 219
comb@@ 219
innovation 219
istic 219
soon 218
ell 218
ane 218
psych@@ 218
solution 217
gra@@ 217
ture 217
exp@@ 217
sex 217
chance 217
den@@ 217
bottom 217
super@@ 217
English 217
absolutely 217
result 217
available 216
Com@@ 216
hour 216
network 216
forms 215
beyond 215
morning 215
pictures 215
ward 215
active 214
development 214
ators 214
ately 214
lu@@ 214
major 214
pro@@ 214
act@@ 214
seems 214
perfect 214
allow 214
oun@@ 213
save 213
spec@@ 213
C 213
died 213
ys 213
ited 212
miles 212
involved 212
medical 212
online 212
ell@@ 212
girls 212
groups 212
relationship 211
Europe 211
yes 211
hum@@ 210
ff@@ 210
person@@ 210
bor@@ 210
imag@@ 210
amb@@ 210
ects 210
Le@@ 210
dark 210
playing 210
res 209
gi@@ 209
industry 209
tend 209
ched 209
send 209
similar 209
girl 209
patient 209
robot 209
ably 208
product 208
60 208
break 208
reasons 208
board 208
drive 208
running 208
message 208
plant 208
ular 207
kes 207
class 207
impact 206
ery 206
fun 206
fact@@ 206
ten@@ 206
leaders 206
dra@@ 206
haven 206
sw@@ 206
center 206
bri@@ 205
ind@@ 205
situation 205
lab 205
reach 205
digital 205
choice 205
icians 205
After 204
fully 204
aging 204
gen@@ 204
ple 204
met@@ 204
lies 204
bre@@ 204
fu@@ 203
oper@@ 203
5 203
lived 203
reading 203
wer 203
rules 203
recently 203
position 203
st 202
o-@@ 202
ef@@ 202
By 202
shape 202
real@@ 202
ending 201
re 201
coll@@ 201
color 201
ow 200
ops 200
generation 200
predic@@ 200
writing 200
tells 200
ub@@ 199
aren 199
cy@@ 199
thank 199
truth 199
ah 199
press 198
talked 198
M 198
effect 197
ational 197
head@@ 197
ses 197
knows 197
produc@@ 197
explain 197
bel@@ 197
approach 196
red@@ 196
d-@@ 196
violence 196
ard@@ 196
cool 196
connected 196
ide@@ 196
hun@@ 196
prim@@ 196
t-@@ 196
type 195
plan@@ 195
kid 195
Don 195
several 195
Of 195
street 195
increas@@ 195
cause 195
scientific 195
towards 195
aged 195
ust 195
becomes 195
ga@@ 195
especially 194
sent 194
blue 194
fre@@ 194
stem 194
worth 194
transform@@ 194
resources 194
Every 193
stay 193
modern 193
25 193
Google 193
eg@@ 193
11 193
film 193
mission 193
ot 192
incredibly 192
defin@@ 192
7 192
road 192
ari@@ 192
basic 192
special 192
O 191
exciting 191
ready 191
teach 191
ances 191
eless 191
ong 190
carbon 190
door 190
ional 190
drugs 190
ped 190
examples 190
putting 190
hon@@ 190
roc@@ 190
pres@@ 190
experiment 189
12 189
With 188
acy 188
row 188
fall 188
journey 188
begin 188
wish 188
dead 188
North 188
cat@@ 187
pick 187
period 187
ni@@ 187
stand 187
tu@@ 187
code 187
non-@@ 187
Par@@ 187
ching 187
nobody 187
nine 187
starts 187
inst@@ 187
direc@@ 187
anybody 186
cop@@ 186
ures 186
meet 186
Mus@@ 186
certainly 185
squ@@ 185
deep 185
Maybe 185
wants 185
crazy 185
totally 184
prom@@ 184
prop@@ 184
drug 184
bro@@ 184
recor@@ 184
onto 184
T 184
device 183
communities 183
guess 183
lin@@ 183
G 183
materials 183
ext@@ 183
emplo@@ 183
mot@@ 182
lines 182
ough 182
syn@@ 182
sl@@ 182
ric@@ 182
screen 182
80 182
ended 182
back@@ 182
ach@@ 181
strong 181
mental 181
security 181
ym@@ 181
largest 181
sit 181
pul@@ 181
nor@@ 180
ant@@ 180
Even 180
tic 180
skin 180
cent@@ 180
Where 179
projects 179
comp@@ 179
itive 179
wers 179
gre@@ 179
standing 179
ences 179
sing 179
Chinese 179
eye 179
present 179
hit 179
higher 179
foot@@ 179
rights 178
showing 178
meas@@ 178
500 178
De@@ 178
neur@@ 178
spe@@ 178
our@@ 178
activ@@ 178
measure 178
ave 177
med 177
ming 177
R 177
schools 177
grand@@ 177
consum@@ 176
potential 176
democracy 176
particularly 176
biggest 176
source 176
fa@@ 176
shar@@ 176
walking 176
ade 175
including 175
worse 175
among 175
stat@@ 175
response 175
teachers 175
Look 175
ong@@ 175
det@@ 175
ound@@ 174
ma 174
pe 174
Car@@ 174
proper@@ 174
mor@@ 174
sal@@ 174
revolution 174
clos@@ 173
hundred 173
lose 173
ese 173
bigger 173
Ne@@ 173
tive 173
objects 173
sleep 173
positive 172
workers 172
press@@ 172
high-@@ 172
dist@@ 172
student 172
ual 172
tor@@ 172
further 172
success 172
cal@@ 172
results 172
role 171
notice 171
alized 171
ases 171
object 171
ky 171
199@@ 171
ire 170
international 170
educ@@ 170
games 170
trav@@ 170
ath 170
ach 170
bunch 170
rac@@ 170
ina 170
models 170
trees 169
ove 169
mer@@ 169
process@@ 169
essentially 169
discus@@ 169
shown 169
smart 169
ee 168
crisis 168
obviously 168
jobs 168
jo@@ 168
eventually 168
improv@@ 167
plants 167
month 167
sa@@ 167
office 167
minute 167
Gre@@ 167
everywhere 167
ionary 167
upon 167
creative 167
nuclear 167
add 166
ders 166
develop 166
truly 166
Ph@@ 166
safe 166
mil@@ 166
star@@ 166
pain 166
software 166
listen 166
tly 166
tw@@ 166
hop@@ 166
wall 166
sch@@ 166
ological 166
allowed 166
200 166
ball 166
Ex@@ 165
allows 165
Who 165
trust 165
production 165
grew 165
Christ@@ 165
mass 165
0-@@ 165
rich 165
ivity 165
def@@ 165
follow 165
hol@@ 165
actions 165
continu@@ 164
driving 164
Chris 164
ici@@ 164
ther 164
sim@@ 164
activity 164
finding 164
/ 164
okay 164
interest 164
moral 164
ping 164
sounds 164
inc@@ 164
college 164
ulate 163
First 163
ads 163
kill 163
speed 163
chan@@ 163
az@@ 163
meaning 163
ears 163
Most 163
cont@@ 163
mechan@@ 163
forest 162
robots 162
bul@@ 162
mine 162
ey@@ 162
West 162
ligh@@ 162
ol 162
dem@@ 162
bodies 162
K 162
econom@@ 161
uring 161
products 161
cas@@ 161
increase 161
ites 161
teacher 161
equ@@ 161
photograph@@ 161
tit@@ 161
families 160
village 160
gar@@ 160
tain 160
watching 160
wind 160
minds 160
compassion 160
cases 160
fight 160
legal 159
training 159
aid 159
visual 159
medicine 159
boy 159
larger 159
points 159
imm@@ 159
log@@ 158
tru@@ 158
brea@@ 158
not@@ 158
appe@@ 158
town 158
extraordinary 158
protect 158
brains 158
em 158
mal@@ 158
ony 158
un 157
inten@@ 157
18 157
Which 157
above 157
machines 157
spread 157
taught 157
self 157
extremely 156
poverty 156
blo@@ 156
cour@@ 156
sou@@ 156
ables 156
bacteria 156
vir@@ 156
da 156
fing@@ 156
choose 156
org@@ 156
named 156
meant 156
neurons 156
ident@@ 156
eth@@ 156
movie 155
favorite 155
explor@@ 155
ft 155
ving 155
ious 155
pieces 155
camera 155
collabor@@ 155
cre@@ 155
nal 155
faster 155
depen@@ 155
cli@@ 155
list 155
vari@@ 155
La@@ 155
tool 154
solar 154
service 154
ock@@ 154
successful 154
killed 154
memory 154
shor@@ 154
mem@@ 154
cle 154
massive 154
general 154
loved 154
pattern 154
swe@@ 154
atic 154
complicated 154
wait 154
individuals 153
income 153
ces 153
specific 153
ep 153
somewhere 153
thousand 153
col@@ 153
zed 153
Nor@@ 153
police 153
ake 153
trac@@ 153
seconds 153
treatment 153
ounded 153
consider 153
Are 153
ods 153
oms 153
clim@@ 152
add@@ 152
func@@ 152
supposed 152
shot 152
pop@@ 152
continue 152
uction 152
Those 152
pros@@ 152
ever@@ 152
tre@@ 152
stars 152
engineering 152
usually 152
pot@@ 152
physics 152
lead 151
tree 151
perspective 151
wife 151
conversation 151
impossible 151
anc@@ 151
acting 151
ually 151
plan 150
expect 150
Today 150
fir@@ 150
concept 150
du@@ 150
ician 150
site 150
expensive 150
tor 150
well-@@ 150
18@@ 150
math 150
represent@@ 150
ci@@ 150
organ@@ 149
ise 149
fac@@ 149
human@@ 149
Bo@@ 149
ners 149
ner@@ 149
ner 149
goal 148
lights 148
page 148
conditions 148
kers 148
trial 148
please 148
arch@@ 148
doctor 148
studies 148
skills 148
helped 148
series 147
written 147
onic 147
David 147
hel@@ 147
patterns 147
happiness 147
decisions 147
eful 147
policy 147
ices 147
fire 146
treat 146
ams 146
critical 146
ash 146
serious 146
tur@@ 146
bs 146
ale 146
eds 146
sorts 146
organization 146
hospital 146
recognize 146
ization 146
inted 145
ination 145
down@@ 145
90 145
context 145
challenges 145
fer@@ 145
hom@@ 145
ring 145
pun@@ 145
Do@@ 145
ip@@ 144
train 144
weren 144
tes@@ 144
ulation 144
requi@@ 144
private 144
genes 144
East 144
sing@@ 144
record 144
sor@@ 144
cul@@ 144
TED@@ 144
term 144
ef 144
exist 144
emp@@ 144
a-@@ 144
excited 144
que 144
progress 143
ards 143
kept 143
yeah 143
tem@@ 143
suddenly 143
University 143
indeed 143
hot 143
wards 143
direction 143
humanity 142
electricity 142
main@@ 142
military 142
Di@@ 142
listening 142
complete 142
ty@@ 142
weight 142
she@@ 142
waste 141
wide 141
alive 141
tim@@ 141
ret@@ 141
iz@@ 141
connect 141
mi@@ 141
beings 141
ger 141
ax@@ 141
anywhere 141
tal@@ 141
peace 141
fundamental 141
ish@@ 141
politics 140
meeting 140
gotten 140
diversity 140
actual 140
ud@@ 140
search 140
agg@@ 140
dog 140
celebr@@ 140
financial 140
fine 140
calc@@ 140
African 140
becoming 139
ening 139
song 139
ail@@ 139
fall@@ 139
sun 139
ler 139
mid@@ 139
ug@@ 139
sky 139
char@@ 138
sam@@ 138
traditional 138
bas@@ 138
function 138
governments 138
Mo@@ 138
touch 138
inj@@ 138
website 138
ather 138
refl@@ 138
two-@@ 138
sun@@ 138
sec@@ 138
range 138
eri@@ 138
himself 138
War 138
greatest 138
immediately 137
thern 137
yed 137
Like 137
ib@@ 137
funny 137
TV 137
somehow 137
older 137
hal@@ 137
cam@@ 137
healthy 137
dream 137
ster@@ 137
gas 137
date 136
vi@@ 136
mobile 136
ionally 136
region 136
cold 136
Your 136
tun@@ 136
wonder@@ 136
chi@@ 136
appro@@ 136
laws 136
dies 136
values 136
architecture 135
except 135
performance 135
alization 135
four@@ 135
smaller 135
acts 135
talks 135
decision 135
om 135
pose 135
connection 135
institutions 135
buildings 134
eption 134
scre@@ 134
related 134
strange 134
sed 134
floor 134
lower 134
anymore 134
thers 134
babies 134
travel 134
whe@@ 134
rise 134
decades 134
hur@@ 134
He@@ 134
L 134
phones 134
tural 134
costs 134
list@@ 134
aware 134
Br@@ 134
oth 133
version 133
sell 133
urban 133
top@@ 133
waiting 133
biology 133
ective 133
Americans 133
int 133
wonder 133
win 133
ton@@ 133
conflict 133
vent@@ 133
io 133
ached 133
ref@@ 133
sy@@ 133
solutions 132
HIV 132
ible 132
intelligence 132
faces 132
oph@@ 132
iting 132
Mon@@ 132
web 132
archit@@ 132
hear@@ 132
John 132
store 132
ust@@ 132
remarkable 132
dance 132
one-@@ 132
ections 132
thro@@ 132
content 132
Col@@ 132
streets 132
flu@@ 132
ir 131
ome 131
arm 131
ills 131
bom@@ 131
zero 131
cles 131
insi@@ 131
earlier 131
decide 131
dangerous 131
ole 131
freedom 131
bott@@ 131
win@@ 131
greater 131
foot 131
familiar 131
don@@ 131
posed 130
provide 130
lan@@ 130
race 130
present@@ 130
virus 130
init@@ 130
pressure 130
behav@@ 130
ties 130
dar@@ 130
understood 130
non@@ 130
En@@ 130
vert@@ 130
ember 130
inde@@ 130
eness 130
doctors 130
forces 129
decade 129
-year-old 129
recogn@@ 129
amp 129
helping 129
inn@@ 129
path@@ 129
main 129
to-@@ 129
legs 129
ges 129
forth 129
poll@@ 128
fuel 128
ahead 128
le-@@ 128
wal@@ 128
encour@@ 128
sions 128
ful@@ 128
efficient 128
whose 128
levels 128
female 128
significant 128
markets 128
career 128
planets 128
sm@@ 128
10@@ 127
lat@@ 127
motiv@@ 127
illing 127
gh@@ 127
stri@@ 127
ert 127
rock 127
Imagine 127
vacc@@ 127
invented 127
err@@ 127
stra@@ 127
optim@@ 127
fol@@ 127
ols 127
ye@@ 127
ran 127
fit 127
tou@@ 126
From 126
slow 126
speaking 126
ram@@ 126
willing 126
dly 126
embr@@ 126
pair 126
bone 126
ense 126
ature 126
mut@@ 126
cover 126
colon@@ 126
ce@@ 126
ays 126
citizens 126
ength 125
useful 125
ides 125
leg@@ 125
nat@@ 125
Gr@@ 125
flow 125
current 125
experiments 125
asp@@ 125
icks 125
eating 125
fis@@ 125
throughout 125
expected 125
unique 125
television 125
text 125
states 125
algorith@@ 125
trad@@ 124
Sp@@ 124
rain 124
thes@@ 124
trop@@ 124
ram 124
practice 124
analy@@ 124
possibly 124
er-@@ 124
chem@@ 124
artist 124
ali@@ 124
draw 124
ana 124
dest 124
effective 124
London 124
plastic 124
sum@@ 124
estim@@ 124
print 124
shared 123
ought 123
beauty 123
capital 123
various 123
pull 123
ta 123
dre@@ 123
diseases 123
famous 123
raise 123
magic 123
physic@@ 123
slightly 123
anced 123
ap 123
relationships 123
fic@@ 123
played 123
la 123
services 122
thr@@ 122
survive 122
prof@@ 122
chemical 122
subject 122
conference 122
produced 122
Or@@ 122
Any@@ 122
wit@@ 122
lie 122
societies 122
lov@@ 122
Bi@@ 122
tains 122
wat@@ 122
integr@@ 122
feels 122
ang 122
eters 122
na@@ 122
Me@@ 122
nur@@ 122
dec@@ 122
speech 121
concer@@ 121
flying 121
bil@@ 121
Bro@@ 121
read@@ 121
ag 121
P 121
smo@@ 121
sustainable 121
ids 121
Instead 121
ht 121
serv@@ 121
corpor@@ 121
improve 121
const@@ 121
stick 121
feed 121
wealth 120
Great 120
push 120
obvious 120
qual@@ 120
wel@@ 120
original 120
destro@@ 120
dom@@ 120
adap@@ 120
oo 120
spi@@ 120
Mc@@ 120
era 120
His 120
class@@ 120
Another 120
colleagues 120
Think 120
communicate 120
choices 119
ju@@ 119
ass 119
dollar 119
agre@@ 119
Afghanistan 119
instance 119
ogg@@ 119
City 119
observ@@ 119
yle 119
ours 119
effects 119
pendent 119
noticed 119
programs 119
surr@@ 119
ha 119
types 119
Fran@@ 119
stream 119
perform@@ 119
laugh@@ 118
sign 118
exc@@ 118
below 118
ket 118
itted 118
ea 118
attr@@ 118
uted 118
Sy@@ 118
decl@@ 118
arr@@ 118
balance 118
price 118
ologist 118
sho@@ 118
techni@@ 118
statist@@ 118
demonstr@@ 118
bra@@ 118
sli@@ 117
clearly 117
rule 117
party 117
micro@@ 117
religion 117
pon@@ 117
ified 117
California 117
vol@@ 117
passion 117
ton 117
following 117
sign@@ 117
ens@@ 117
teaching 117
after@@ 117
Ste@@ 117
lav@@ 117
bees 117
address 116
wer@@ 116
pic 116
mark@@ 116
inspired 116
Mars 116
&apos;@@ 116
ser@@ 116
genetic 116
driv@@ 116
answers 116
ily 116
Ab@@ 116
organizations 116
exist@@ 116
construc@@ 116
photograph 116
distr@@ 116
E 116
bub@@ 116
pu@@ 116
degrees 116
path 116
sugg@@ 115
mom 115
three-@@ 115
tran@@ 115
discover 115
biological 115
worst 115
ek 115
eter 115
ape 115
16 115
ans@@ 115
evolved 115
surprising 115
appear 115
near 115
ls 115
ley 115
cross@@ 115
shift 115
imp@@ 115
cell@@ 115
agree 115
achieve 115
fied 115
ili@@ 115
lying 115
ody 114
applic@@ 114
closer 114
enced 114
radi@@ 114
mit 114
inter 114
attack 114
ous@@ 114
ren@@ 114
held 114
Si@@ 114
ogs 114
ost 114
secret 114
daughter 114
jud@@ 114
rooms 114
justice 114
orders 114
terrible 114
extreme 114
Western 114
sat 113
Many 113
conduc@@ 113
polit@@ 113
sick 113
,@@ 113
molecules 113
ury 113
ica 113
creates 113
paid 113
cultural 113
sus@@ 113
14 113
lied 113
hole 113
An 112
sh 112
compet@@ 112
creativity 112
conver@@ 112
198@@ 112
entr@@ 112
definition 112
70 112
conscious 112
event 112
Dr. 112
ulations 112
recent 112
mer 112
cho@@ 112
Take 112
vic@@ 112
ock 112
uck 112
meters 112
dy 112
Two 111
low-@@ 111
300 111
scar@@ 111
lack 111
crit@@ 111
purpose 111
ama 111
journal@@ 111
seemed 111
vehic@@ 111
wher@@ 111
star 111
stopped 111
strong@@ 111
rom@@ 111
anding 111
heat 111
ior 111
amp@@ 111
quar@@ 111
cher 111
European 111
enormous 111
ink 111
giant 111
acted 111
afraid 111
scientist 110
imagination 110
inspi@@ 110
atmosphere 110
therefore 110
ier 110
although 110
responsibility 110
final 110
soci@@ 110
itions 110
inner 110
track 110
bing 110
ecosy@@ 110
mos@@ 110
missing 110
succe@@ 110
suff@@ 110
blind 110
turning 109
directly 109
benefits 109
particip@@ 109
ption 109
twice 109
200@@ 109
ounds 109
pass 109
forever 109
Asia 109
glass 109
supply 109
causes 109
Ge@@ 109
ush 109
bed@@ 109
aches 109
ils 109
ank@@ 109
itt@@ 109
ai 109
leadership 109
ster 109
believ@@ 109
Tur@@ 109
une 109
networks 109
Kor@@ 109
cel@@ 109
conserv@@ 108
re-@@ 108
summer 108
environmental 108
oh 108
men@@ 108
fantastic 108
eling 108
dad 108
aut@@ 108
National 108
Po@@ 108
mountain 108
lab@@ 108
sharing 108
ologists 108
X@@ 108
thy 108
rema@@ 108
prison 108
communication 108
surgery 108
easier 107
extra 107
na 107
emotional 107
anyway 107
13 107
religious 107
engage 107
tum@@ 107
ured 107
achiev@@ 107
bus@@ 107
explore 107
drop 107
descri@@ 107
members 107
esting 107
square 107
relat@@ 107
devices 107
accoun@@ 107
check 107
ah@@ 107
ested 106
sour@@ 106
investment 106
total 106
brings 106
15@@ 106
stuck 106
aim 106
dying 106
propos@@ 106
Pr@@ 106
port@@ 106
on-@@ 106
carry 106
afford 106
ulated 106
respon@@ 106
comfortable 106
sex@@ 106
Se@@ 106
olog@@ 106
walked 106
refer@@ 106
work@@ 106
radio 106
forget 106
usual 105
coo@@ 105
sen@@ 105
importantly 105
clean 105
pract@@ 105
load 105
opposite 105
reve@@ 105
highly 105
high@@ 105
outh 105
abb@@ 105
San 105
oll@@ 105
aded 105
Wi@@ 105
aming 105
quick 105
note 105
bal@@ 105
17 105
intr@@ 105
arian 105
nation 105
slide 104
repe@@ 104
broken 104
ign@@ 104
acc@@ 104
Actually 104
cycle 104
repor@@ 104
by@@ 104
mostly 104
explo@@ 104
eding 104
moves 104
leading 104
inct 104
eled 104
sorry 104
graph@@ 104
custom@@ 104
197@@ 104
meth@@ 104
aching 104
oke 104
report 104
crimin@@ 104
prepar@@ 103
necessary 103
phenomenon 103
published 103
teen@@ 103
chair 103
ancient 103
val@@ 103
vast 103
Inter@@ 103
conf@@ 103
transl@@ 103
corner 103
loss 103
batt@@ 103
opping 103
temperature 103
saving 103
return 103
essed 103
ett@@ 102
capital@@ 102
1.@@ 102
tremendous 102
fres@@ 102
emot@@ 102
visit 102
collap@@ 102
rever@@ 102
wild 102
respect 102
standard 102
industrial 102
core 102
birth 102
shel@@ 102
sold 102
trag@@ 102
1,000 102
possibility 102
struc@@ 102
birds 102
cos@@ 102
wa@@ 102
tast@@ 102
bird 102
boys 102
experiences 102
serve 102
consequences 102
Twitter 102
Again 101
etc 101
infrastructure 101
trade 101
ged 101
email 101
crow@@ 101
shouldn 101
Vi@@ 101
chim@@ 101
invol@@ 101
bought 101
differently 101
bling 101
disc@@ 101
iled 101
rece@@ 101
weird 101
precis@@ 101
rif@@ 101
efs 101
nel 101
eff@@ 101
3D 101
liber@@ 101
polic@@ 101
attac@@ 101
deeply 101
frequ@@ 101
contrib@@ 100
enter@@ 100
effort 100
$ 100
tional 100
assum@@ 100
accep@@ 100
glob@@ 100
spending 100
Te@@ 100
Man 100
ori@@ 100
hist@@ 100
Ro@@ 100
and-@@ 100
intu@@ 100
grav@@ 100
boat 100
differences 100
fo@@ 100
hair 100
catch 100
expla@@ 100
Swe@@ 100
open@@ 100
ectively 100
mel@@ 100
amm@@ 100
hap@@ 100
nearly 100
represent 100
invent@@ 99
ples 99
easily 99
resist@@ 99
managed 99
gene 99
qui@@ 99
Ber@@ 99
compon@@ 99
Ac@@ 99
grade 99
opened 99
anti@@ 99
friend@@ 99
male 99
capacity 99
ints 99
degree 99
pal@@ 99
Su@@ 99
1,@@ 99
character 99
Brazil 99
describe 99
Per@@ 99
oceans 99
condition 99
passed 99
doub@@ 99
trained 98
domin@@ 98
raised 98
indic@@ 98
bio@@ 98
tual 98
cir@@ 98
aking 98
atures 98
ne 98
ve@@ 98
aker 98
edge 98
parent 98
lesson 98
received 98
hard@@ 98
forced 98
anim@@ 98
helps 98
Fin@@ 98
itation 98
equal 98
ister 97
bled 97
wed 97
enjoy 97
resol@@ 97
eth 97
carto@@ 97
ush@@ 97
mouse 97
complexity 97
of@@ 97
studied 97
central 97
hidden 97
posit@@ 97
Thanks 97
sexual 97
scal@@ 97
sav@@ 97
ion-@@ 97
stand@@ 97
British 97
signal 97
evol@@ 97
edy 97
see@@ 97
dram@@ 97
names 97
simul@@ 97
in-@@ 97
quote 97
mag@@ 97
earth 97
doz@@ 96
net 96
Bas@@ 96
oss 96
Good 96
acceler@@ 96
Sometimes 96
mamm@@ 96
creatures 96
bringing 96
liv@@ 96
Big 96
suit 96
French 96
thin 96
ounding 96
airs 96
influence 96
necessarily 96
etic 96
ome@@ 96
experi@@ 96
identity 96
views 96
sensor@@ 96
collective 96
Japan 96
clin@@ 96
program@@ 96
eme 95
pressed 95
bank 95
plane 95
worry 95
5,000 95
iling 95
genome 95
knowing 95
task 95
dict@@ 95
wood 95
beat 95
Mr. 95
correc@@ 95
studying 95
failure 95
push@@ 95
billions 95
Bar@@ 95
sem@@ 95
structures 95
lucky 95
adop@@ 95
wear 95
clo@@ 95
abilities 95
driven 95
itting 95
none 95
surviv@@ 95
xes 95
previ@@ 95
reduce 95
pil@@ 95
calls 95
limited 95
crime 95
port 94
manag@@ 94
Once 94
ook 94
farmers 94
predict 94
fascinating 94
basis 94
Pal@@ 94
vie@@ 94
ero 94
spaces 94
inform@@ 94
broad@@ 94
opy 94
elec@@ 94
suffering 94
arms 94
Mil@@ 94
dreams 94
yellow 94
flies 94
straight 94
itude 94
ann@@ 94
holding 94
houses 94
ven@@ 94
bac@@ 94
worl@@ 94
shed 94
filled 94
Tr@@ 93
oxygen 93
unfortunately 93
everyday 93
Eg@@ 93
yp@@ 93
Hey 93
nar@@ 93
apart 93
invisible 93
ott@@ 93
docum@@ 93
fill 93
adults 93
pit@@ 93
gentlem@@ 93
spr@@ 93
clu@@ 93
painting 93
Iraq 93
focused 93
strategy 93
anger 93
trouble 93
cy 93
histor@@ 93
confid@@ 93
lands 93
Chil@@ 93
sett@@ 93
hi 93
caught 93
gro@@ 93
instit@@ 93
warming 92
innov@@ 92
arily 92
leads 92
thetic 92
fur@@ 92
enter 92
plic@@ 92
window 92
reli@@ 92
concerned 92
experiment@@ 92
followed 92
El@@ 92
sle@@ 92
grat@@ 92
assem@@ 92
popular 92
tail 92
exper@@ 92
shares 92
sac@@ 92
interact 92
Could 92
leaving 92
ycl@@ 92
sist@@ 92
insects 92
ority 92
shi@@ 92
N 92
Middle 92
join 92
amed 92
consciousness 92
shoes 91
AIDS 91
ements 91
benefit 91
riv@@ 91
publi@@ 91
consist@@ 91
ishing 91
ute 91
subst@@ 91
ultimately 91
occur@@ 91
dry 91
tox@@ 91
promise 91
Did 91
ific@@ 91
cha@@ 91
fix 91
facts 91
Coun@@ 91
fortun@@ 91
Ad@@ 91
determin@@ 91
diagnos@@ 91
labor 91
pend@@ 91
virtual 91
ail 91
weapons 91
tation 90
ere 90
designer 90
vel@@ 90
separ@@ 90
Indian 90
sites 90
ships 90
continent 90
neighborhood 90
roll@@ 90
tissue 90
apply 90
thinks 90
distance 90
Gu@@ 90
matters 90
argument 90
notion 90
husband 90
emer@@ 90
demand 90
background 90
rit@@ 90
fab@@ 90
paying 90
rig@@ 90
appreci@@ 90
civiliz@@ 90
H 90
fel@@ 90
challeng@@ 90
Je@@ 90
dinos@@ 90
Facebook 90
hab@@ 89
tain@@ 89
placed 89
Jo@@ 89
particles 89
rad@@ 89
capable 89
hib@@ 89
mol@@ 89
collect 89
aps 89
believed 89
construction 89
ented 89
gry 89
plac@@ 89
moun@@ 89
lex@@ 89
opportunities 89
selling 89
gh 89
op 89
ney 89
valu@@ 89
law@@ 89
prevent 89
ind 89
s-@@ 89
moments 89
fail@@ 89
artists 89
arity 89
environ@@ 88
Brit@@ 88
fair 88
cards 88
tures 88
card 88
walls 88
lit 88
th-@@ 88
bly 88
lic@@ 88
hearing 88
fli@@ 88
fer 88
ied 88
park 88
bir@@ 88
ny 88
U.K. 88
identify 88
sent@@ 88
fle@@ 87
effici@@ 87
Bill 87
400 87
argue 87
moon 87
24 87
responsible 87
surprise 87
university 87
fields 87
considered 87
England 87
compl@@ 87
circu@@ 87
cheap 87
ight@@ 87
ight-@@ 87
lock 87
noise 87
bread 87
youn@@ 87
larg@@ 87
fashion 87
mod@@ 87
gency 87
accur@@ 87
communic@@ 87
ene 87
detail 87
survival 87
elements 87
terri@@ 87
pet@@ 87
cooper@@ 87
Sci@@ 87
pre-@@ 86
competition 86
ced 86
thre@@ 86
puts 86
opin@@ 86
ved 86
ince 86
respond 86
ography 86
compared 86
signals 86
match 86
ongs 86
slowly 86
ished 86
keeping 86
sister 86
dimensional 86
landscape 86
magn@@ 86
shif@@ 86
Cl@@ 86
xed 86
professional 86
spot 86
ety 86
oes 86
ights 85
xim@@ 85
trib@@ 85
wid@@ 85
bear 85
ough@@ 85
convent@@ 85
terror@@ 85
ree 85
No@@ 85
debate 85
sudden 85
dum@@ 85
-up 85
tech 85
ared 85
mist@@ 85
counter@@ 85
calling 85
Each 85
profound 85
base 85
grad@@ 85
peri@@ 85
generations 85
jum@@ 85
cro@@ 85
shoul@@ 85
ric 85
bility 85
brother 85
river 85
sta@@ 85
ox@@ 85
factory 85
cloud 85
mac@@ 84
creation 84
break@@ 84
occu@@ 84
sector 84
deliver@@ 84
Co@@ 84
butt@@ 84
photo 84
platform 84
Li@@ 84
reas@@ 84
theater 84
equipment 84
article 84
sters 84
clinical 84
businesses 84
partment 84
random 84
eleph@@ 84
civil 84
leader 84
suggests 84
finished 84
danc@@ 84
incent@@ 84
fron@@ 84
offer 84
ioned 84
failed 84
uries 84
mathematics 84
ales 84
brand 83
ness@@ 83
closed 83
frag@@ 83
colors 83
jump 83
Mal@@ 83
organisms 83
Over 83
aying 83
Paul 83
bridge 83
inate 83
thir@@ 83
grown 83
Everything 83
childhood 83
Man@@ 83
Richard 83
heads 83
ographic 83
double 83
shapes 83
stone 83
graph 83
unk 83
alize 83
rational 83
boo@@ 83
wearing 83
pher@@ 83
fortunately 83
plus 83
entially 83
facil@@ 83
mirr@@ 83
prototy@@ 83
mass@@ 83
mothers 83
inequality 83
transpor@@ 82
folks 82
existence 82
flight 82
begins 82
world@@ 82
neighb@@ 82
threat 82
ignor@@ 82
dinner 82
emotions 82
toward 82
hu@@ 82
ancest@@ 82
protein 82
despite 82
charge 82
soldiers 82
connections 82
ballo@@ 82
paint 82
block 82
losing 82
zer@@ 82
uary 82
heav@@ 82
wave 82
smell 82
sity 82
antly 82
surprised 82
researchers 82
stress 82
extr@@ 81
entrepreneur@@ 81
implic@@ 81
Second 81
21@@ 81
seriously 81
- 81
tex@@ 81
oot 81
sculp@@ 81
discovery 81
ease 81
drawing 81
fell 81
Everybody 81
pping 81
fighting 81
foreign 81
ken 81
infl@@ 81
wil@@ 81
invited 81
More 81
bilities 81
Some@@ 81
lets 81
ened 81
organized 81
Web 81
ben@@ 81
otherwise 81
kilom@@ 81
eper 81
typical 81
ayed 81
caused 81
majority 81
embar@@ 81
mathematical 81
events 81
safety 81
pped 81
Have 81
comput@@ 81
bles 81
engine 81
campaign 81
traffic 81
aim@@ 81
harder 81
classroom 81
illustr@@ 80
profit 80
medi@@ 80
sev@@ 80
designers 80
ote 80
democrat@@ 80
hell 80
treated 80
ander 80
sequence 80
pages 80
destr@@ 80
electric 80
F 80
cultures 80
See 80
dev@@ 80
covered 80
driver 80
ich 80
ena 80
whenever 80
On@@ 80
appeared 80
fem@@ 80
distribution 80
ising 80
economics 80
puzz@@ 80
edi@@ 80
ign 80
carefully 80
generate 80
robot@@ 80
psy@@ 80
argu@@ 80
tured 80
establi@@ 80
que@@ 80
signed 80
mouth 80
incre@@ 80
medic@@ 80
steps 80
figured 79
roll 79
testing 79
museum 79
belief 79
users 79
opening 79
fairly 79
pounds 79
prevent@@ 79
Their 79
icated 79
wisdom 79
therapy 79
constantly 79
kin@@ 79
biolog@@ 79
picked 79
separate 79
glo@@ 79
ques 79
account 79
Har@@ 79
Des@@ 79
ased 79
consumption 79
fail 79
itely 79
ger@@ 79
wr@@ 79
Australia 79
concentr@@ 79
pac@@ 79
However 79
proud 79
pt@@ 79
ues 79
epi@@ 78
MIT 78
engineer 78
ok@@ 78
engineers 78
deb@@ 78
worried 78
President 78
voices 78
arrived 78
fold 78
vote 78
Washington 78
prove 78
epidemic 78
mas 78
libr@@ 78
Life 78
brilliant 78
analysis 78
normally 78
Ger@@ 78
mark 78
bes 78
neg@@ 78
violent 78
seat 78
represents 78
encies 78
transform 78
strategi@@ 78
ble@@ 78
ka 78
ater 78
tries 78
hospit@@ 78
inning 78
technolog@@ 78
gg@@ 78
nations 78
Afric@@ 78
breaking 78
School 78
micros@@ 78
dang@@ 78
negative 77
target 77
alternative 77
Cor@@ 77
convince 77
married 77
character@@ 77
exten@@ 77
small@@ 77
scri@@ 77
throw 77
od 77
hate 77
Hum@@ 77
Atlan@@ 77
leaves 77
lun@@ 77
pes 77
W 77
watched 77
obsess@@ 77
gender 77
coffee 77
cognitive 77
electrical 77
highest 77
magaz@@ 77
Very 77
di 77
erve 77
powered 77
resour@@ 77
waves 77
beg@@ 77
demic 77
Iran 77
flu 77
bers 77
II 77
fewer 77
deliver 77
faith 77
prison@@ 77
Isl@@ 77
esome 77
volunte@@ 76
Ital@@ 76
intelligent 76
alls 76
define 76
dimensions 76
desire 76
Ple@@ 76
planning 76
appropri@@ 76
affect 76
akes 76
investig@@ 76
cou@@ 76
depression 76
provid@@ 76
tons 76
ulous 76
tion@@ 76
rot@@ 76
offici@@ 76
aries 76
ason 76
rob@@ 76
due 76
meaning@@ 76
spor@@ 76
layer 76
trillion 76
gun 76
abstr@@ 76
rid 76
aur@@ 76
threat@@ 76
James 76
importance 76
chec@@ 76
leg 76
sentence 76
Inde@@ 76
advantage 76
victims 76
chain 75
Nigeria 75
Bu@@ 75
mentioned 75
ided 75
Som@@ 75
corruption 75
section 75
homes 75
rough@@ 75
sequ@@ 75
technical 75
luc@@ 75
dom 75
univers@@ 75
gri@@ 75
require 75
formed 75
according 75
uts 75
languages 75
philosoph@@ 75
clock 75
invest 75
hadn 75
member 75
Michael 75
Go@@ 75
compar@@ 75
shap@@ 75
collection 75
characters 75
reaction 75
president 75
curious 75
shoc@@ 75
arts 75
urch 75
need@@ 75
sig@@ 75
facing 74
tens 74
designing 74
pay@@ 74
versus 74
ultim@@ 74
letter 74
charg@@ 74
resp@@ 74
scene 74
pleasure 74
perfectly 74
bus 74
launched 74
en-@@ 74
thi@@ 74
explains 74
grandmother 74
dam@@ 74
controll@@ 74
lay 74
antic 74
evolut@@ 74
ode 74
istry 74
spring 74
til@@ 74
thanks 74
circle 74
ential 74
Go 74
35 74
yer 74
pir@@ 74
exec@@ 74
addic@@ 74
sum 74
vill@@ 74
dent@@ 74
pap@@ 74
unt@@ 74
empathy 74
principle 74
meat 74
photos 74
videos 74
described 74
aks 74
geon 74
aly@@ 73
compli@@ 73
tex 73
island 73
dealing 73
10,000 73
maps 73
switch 73
rhy@@ 73
actor 73
wings 73
whom 73
Por@@ 73
ride 73
graduate 73
cra@@ 73
avoid 73
controlled 73
released 73
movies 73
100,000 73
rates 73
encing 73
molecule 73
universal 73
vot@@ 73
healthcare 73
illness 73
erg@@ 73
icking 73
struggle 73
discover@@ 73
emerging 73
GDP 73
interaction 73
dynamic 73
circum@@ 73
search@@ 73
ung 73
oom 73
anthr@@ 73
div@@ 73
inclu@@ 72
setting 72
rare 72
Germany 72
instruc@@ 72
sport 72
announ@@ 72
lunch 72
broke 72
frustr@@ 72
messages 72
productive 72
land@@ 72
lady 72
hasn 72
hypo@@ 72
sess@@ 72
visu@@ 72
spon@@ 72
regular 72
Audience 72
currently 72
connect@@ 72
parti@@ 72
usion 72
saved 72
satellite 72
access@@ 72
U.@@ 72
breast 72
autism 72
power@@ 72
principles 72
conclus@@ 72
bits 72
radical 72
novel 72
credit 72
tane@@ 72
ility 72
emat@@ 72
instrum@@ 72
unless 72
pengu@@ 72
airplane 71
proj@@ 71
soil 71
citiz@@ 71
exact 71
govern@@ 71
station 71
origin@@ 71
compare 71
honest 71
Pacific 71
operating 71
ither 71
ially 71
remain 71
tomorrow 71
solved 71
adult 71
Ol@@ 71
expression 71
gap 71
marriage 71
partner 71
associated 71
Is@@ 71
count 71
orig@@ 71
natur@@ 71
surve@@ 71
eli@@ 71
multiple 71
Mexico 71
uni@@ 71
daily 71
isol@@ 71
warm 71
Women 71
color@@ 71
ordinary 71
med@@ 71
motion 71
rist@@ 71
sin@@ 70
emissions 70
details 70
dea@@ 70
pock@@ 70
Thomas 70
asks 70
concep@@ 70
Rus@@ 70
the-@@ 70
Ke@@ 70
196@@ 70
players 70
quest 70
ums 70
essential 70
hopefully 70
Times 70
bar 70
2000 70
Wat@@ 70
signs 70
cing 70
foundation 70
iness 70
gol@@ 70
sand@@ 70
yesterday 70
iors 70
elet@@ 70
stood 70
Would 70
lessons 70
King 70
sees 70
quantum 70
long@@ 70
explan@@ 70
cameras 70
let@@ 70
Q@@ 70
ull 70
insur@@ 70
pers 70
loo@@ 70
tol@@ 70
illed 70
George 70
perc@@ 70
Wal@@ 70
artifici@@ 70
escap@@ 70
fro@@ 70
enty 70
ashing 70
rab 70
izes 70
ior@@ 70
elling 70
mathemat@@ 70
ern 70
smile 70
fishing 70
irs 70
thoughts 70
staff 69
invest@@ 69
nan@@ 69
rural 69
scen@@ 69
exercise 69
terrorism 69
tar@@ 69
spac@@ 69
minim@@ 69
buil@@ 69
Wor@@ 69
click 69
sic@@ 69
experts 69
ancy 69
horse 69
blocks 69
fundament@@ 69
panz@@ 69
veget@@ 69
Mor@@ 69
stupid 69
sop@@ 69
organic 69
evil 69
boun@@ 69
eps 69
liked 69
shop 69
sad 69
ins@@ 69
telesc@@ 69
ya 69
Am@@ 69
equival@@ 69
year-old 69
post-@@ 69
phot@@ 69
fat 69
entirely 69
rain@@ 69
porting 69
instrument 69
vo@@ 69
Res@@ 69
ple@@ 69
battery 69
chemicals 69
yers 69
esia 69
ging 69
rescu@@ 69
Rem@@ 69
dolph@@ 69
underneath 69
kid@@ 69
visible 68
passionate 68
specifically 68
of-@@ 68
commercial 68
buc@@ 68
interests 68
craft 68
success@@ 68
aper 68
17@@ 68
overwhel@@ 68
viol@@ 68
categ@@ 68
carrying 68
convinced 68
spirit 68
Pro@@ 68
stery 68
long-term 68
ests 68
Francisco 68
reci@@ 68
sna@@ 68
exists 68
six@@ 68
holes 68
Charles 68
nu@@ 68
figures 68
lo 68
last@@ 68
apped 68
cil 68
Kenya 68
deplo@@ 68
manufacturing 68
launch 68
movements 68
lob@@ 68
vulnerable 68
Med@@ 68
ez@@ 68
chick@@ 68
Tal@@ 68
relevant 68
introduced 68
strugg@@ 68
Israel 68
anx@@ 68
invention 67
clean@@ 67
gall@@ 67
biom@@ 67
aring 67
clus@@ 67
management 67
inher@@ 67
ised 67
joined 67
method 67
microbes 67
revol@@ 67
feedback 67
cross 67
Center 67
rais@@ 67
drink 67
spoke 67
oting 67
kitchen 67
forests 67
fascin@@ 67
damage 67
ogen@@ 67
anti-@@ 67
eping 67
agriculture 67
some@@ 67
ify 67
lay@@ 67
hou@@ 67
contact 67
illus@@ 67
alism 67
player 67
accident 67
literature 67
oti@@ 67
ulating 67
Congress 67
enem@@ 67
manage 67
icon 67
runs 67
plays 67
disaster 67
exam@@ 67
mistake 67
pregn@@ 67
viewed 67
Perhaps 67
enjo@@ 67
poor@@ 67
2,000 67
Min@@ 67
mortality 67
Ed@@ 67
satis@@ 67
etry 67
underwater 67
ried 67
gay 67
sand 67
keys 67
coral 67
iPhone 67
ells 66
restaur@@ 66
hang@@ 66
US 66
Pe@@ 66
reven@@ 66
45 66
agement 66
12@@ 66
budget 66
letters 66
intellec@@ 66
gift 66
Sim@@ 66
gather@@ 66
kno@@ 66
suggest 66
perman@@ 66
play@@ 66
joy 66
practical 66
vit@@ 66
variety 66
horiz@@ 66
solute 66
Willi@@ 66
hoods 66
bon@@ 66
jects 66
stac@@ 66
install@@ 66
toil@@ 66
rene@@ 66
computing 66
molec@@ 66
otic 66
treat@@ 66
galaxies 66
mind@@ 66
lifetime 66
vibr@@ 66
rapid@@ 66
Day 66
location 66
Boston 66
public@@ 66
gold 66
pleas@@ 66
Soci@@ 66
newspaper 66
Ju@@ 66
phere 66
metaphor 66
writer 66
ult 66
phys@@ 66
situ@@ 66
marine 66
CE@@ 65
cutting 65
desig@@ 65
inspiration 65
heavy 65
notes 65
mu@@ 65
user 65
nerv@@ 65
fore 65
trials 65
Rob@@ 65
Gol@@ 65
chnolog@@ 65
eas 65
ten 65
Einstein 65
professor 65
mur@@ 65
crash 65
narr@@ 65
coordin@@ 65
printing 65
2010 65
uced 65
wake 65
confl@@ 65
2008 65
iter@@ 65
Russia 65
Adam 65
assist@@ 65
Anderson 64
link 64
ict 64
operate 64
195@@ 64
Come 64
pet 64
now@@ 64
ager 64
neurosci@@ 64
expl@@ 64
lem@@ 64
bol@@ 64
neighbor@@ 64
ange 64
ete 64
guar@@ 64
document@@ 64
600 64
occas@@ 64
Robert 64
fal@@ 64
emerg@@ 64
discipl@@ 64
Sch@@ 64
MS 64
gain 64
As@@ 64
cav@@ 64
ugg@@ 64
mess@@ 64
fru@@ 63
kil@@ 63
aud@@ 63
classi@@ 63
opped 63
aling 63
racy 63
offic@@ 63
Sou@@ 63
ems 63
CO2 63
spar@@ 63
saf@@ 63
eur 63
introduce 63
percent@@ 63
galax@@ 63
rub@@ 63
stim@@ 63
genet@@ 63
feed@@ 63
rass@@ 63
west 63
Dec@@ 63
YouTube 63
BG 63
sustain@@ 62
an-@@ 62
NASA 62
dows 62
nam@@ 62
utions 62
conn@@ 62
creat@@ 62
eting 62
Canada 62
artic@@ 62
relate 62
mirac@@ 62
pen 62
rim@@ 62
musical 62
pression 62
atom@@ 62
hood 62
dynam@@ 62
Los 62
enc@@ 62
ester@@ 62
Fre@@ 62
distrib@@ 62
malaria 62
ison 62
remote 62
gest@@ 62
lions 62
rid@@ 62
Dem@@ 62
mult@@ 62
oods 62
2.@@ 62
mill@@ 62
eter@@ 62
decre@@ 62
igu@@ 62
dig@@ 62
ridge 61
150 61
sub-@@ 61
atory 61
99 61
Bank 61
Every@@ 61
imes 61
organ 61
display 61
Arab@@ 61
band 61
wise 61
Lin@@ 61
Amazon 61
je@@ 61
ald 61
pris@@ 61
laborat@@ 61
mun@@ 61
eum 61
replic@@ 61
resear@@ 61
acqu@@ 61
antibiot@@ 61
include 61
dedic@@ 61
mom@@ 61
kill@@ 61
ros@@ 61
itu@@ 61
creature 61
oss@@ 60
iver 60
shall 60
Gener@@ 60
inevit@@ 60
Institute 60
Mi@@ 60
ra 60
possi@@ 60
medium 60
Harvard 60
Satur@@ 60
Dis@@ 60
ean 60
bad@@ 60
concrete 60
Valley 60
therap@@ 60
Pri@@ 60
astronom@@ 60
Jos@@ 60
opher 60
spirit@@ 60
ool 60
ingredi@@ 60
ause 60
dir@@ 60
utes 60
paradig@@ 59
develop@@ 59
intim@@ 59
Gal@@ 59
Steve 59
tele@@ 59
ont@@ 59
nic@@ 59
tend@@ 59
incid@@ 59
ron@@ 59
Juli@@ 59
cure 59
Ra@@ 59
beli@@ 59
indi@@ 59
resid@@ 59
arg@@ 59
tab@@ 59
igh 59
cruci@@ 59
oud 59
ham 59
v 59
rest@@ 59
gran@@ 59
mapp@@ 59
Sar@@ 59
but@@ 59
navig@@ 59
Will 58
master 58
post@@ 58
stun@@ 58
ank 58
ino 58
grid 58
multi@@ 58
75 58
appar@@ 58
gradu@@ 58
lear@@ 58
innovative 58
propor@@ 58
Em@@ 58
ray 58
lin 58
cru@@ 58
diag@@ 58
cover@@ 58
perce@@ 58
esses 58
dro@@ 58
fos@@ 58
habit@@ 58
laptop 57
fore@@ 57
ether 57
Dan 57
esc@@ 57
&amp; 57
secon@@ 57
divi@@ 57
wir@@ 57
Jan@@ 57
lau@@ 57
great@@ 57
hotel 57
ame@@ 57
amaz@@ 57
liqu@@ 57
Don@@ 57
foc@@ 57
Jer@@ 57
bran@@ 57
dy@@ 57
rup@@ 57
Ros@@ 57
Qu@@ 57
autonom@@ 57
tap@@ 57
2007 57
ived 57
egg@@ 57
pers@@ 57
net@@ 56
ette 56
nership 56
impress@@ 56
nov@@ 56
writ@@ 56
tempor@@ 56
ver 56
f-@@ 56
resili@@ 56
status 56
special@@ 56
prote@@ 56
geni@@ 56
dia 56
foss@@ 56
stre@@ 56
mix 56
pop 56
typic@@ 56
nel@@ 56
relative 56
piano 56
iel@@ 56
ata 56
da@@ 56
Lat@@ 56
ograph@@ 56
barri@@ 56
Global 56
opia 56
nec@@ 56
ola 56
Project 56
dep@@ 56
privacy 56
new@@ 56
PM 56
impl@@ 55
owever 55
eer 55
pig@@ 55
som@@ 55
16@@ 55
00@@ 55
preci@@ 55
Ben@@ 55
scor@@ 55
influ@@ 55
Wow 55
yn@@ 55
vac@@ 55
Num@@ 55
Street 55
rend@@ 55
Islam 55
consider@@ 55
just@@ 55
Mis@@ 55
Alex@@ 55
Mat@@ 55
ur 55
virtu@@ 55
less@@ 54
raf@@ 54
bic@@ 54
esti@@ 54
Park 54
ames 54
zz@@ 54
low@@ 54
suc@@ 54
Central 54
ector 54
Wikipedia 54
Sil@@ 54
esp@@ 54
Haw@@ 54
targ@@ 54
Darwin 54
stems 54
spin@@ 54
ood 54
tro@@ 54
Lu@@ 54
termine 54
Ear@@ 54
U 54
bia 54
diam@@ 54
Mich@@ 54
Obama 54
adi@@ 53
14@@ 53
deser@@ 53
lig@@ 53
drog@@ 53
pure 53
ext 53
usi@@ 53
conclu@@ 53
autom@@ 53
maker 53
profess@@ 53
infinite 53
Hu@@ 53
las@@ 53
post 53
prime 53
Peter 53
allo@@ 53
bet 53
fat@@ 53
Sud@@ 53
Pakistan 53
Ken@@ 53
neutr@@ 53
tac@@ 53
contin@@ 53
To@@ 53
liter@@ 53
iver@@ 53
mate 53
ocrat@@ 53
persu@@ 52
any@@ 52
studio 52
rian 52
thin@@ 52
itional 52
son@@ 52
fav@@ 52
pp@@ 52
Angeles 52
im 52
centr@@ 52
icity 52
assume 52
pred@@ 52
State 52
fug@@ 52
lett@@ 52
week@@ 52
21 52
House 52
app 52
ost@@ 52
habitat 52
Sol@@ 52
via 52
2009 52
conveni@@ 51
surpris@@ 51
doc@@ 51
So@@ 51
marketing 51
gence 51
X 51
che 51
accum@@ 51
privil@@ 51
My@@ 51
Ob@@ 51
co-@@ 51
argum@@ 51
ani@@ 51
Wil@@ 51
hous@@ 51
lap@@ 51
ung@@ 51
Oc@@ 51
divide 51
Del@@ 51
probabil@@ 51
zone 51
berg 51
Scot@@ 51
interpre@@ 51
micr@@ 51
proc@@ 51
New@@ 51
deta@@ 51
icate 51
veter@@ 51
Al 50
bag@@ 50
Bur@@ 50
AR@@ 50
volume 50
ond 50
Pi@@ 50
Sa@@ 50
colli@@ 50
appl@@ 50
olit@@ 50
multi-@@ 50
cri@@ 50
Ver@@ 50
differ@@ 50
ami 50
past@@ 50
Vir@@ 50
Ind@@ 50
curve 50
Sur@@ 50
thal 50
eut@@ 50
agon@@ 50
ota 50
arly 50
prescri@@ 50
yr@@ 50
migr@@ 50
los@@ 50
tal 50
glu@@ 50
hack@@ 50
sul@@ 49
sus 49
ministr@@ 49
tile 49
alle@@ 49
Art 49
voc@@ 49
quan@@ 49
fare 49
dign@@ 49
convers@@ 49
progress@@ 49
mig@@ 49
Her@@ 49
ecture 49
lac@@ 49
manufact@@ 49
tom@@ 49
ress 49
Tw@@ 49
smar@@ 49
partic@@ 49
jour@@ 49
extrem@@ 49
anon@@ 49
civili@@ 49
Camb@@ 49
chip 49
venture 49
wis@@ 49
magnet@@ 49
Sahar@@ 49
ebr@@ 49
vag@@ 49
ure@@ 49
sar@@ 49
Jon@@ 49
Congo 49
Hon@@ 49
pollin@@ 49
tras@@ 49
V 48
Be 48
ille 48
restr@@ 48
raz@@ 48
diver@@ 48
pion@@ 48
Oce@@ 48
John@@ 48
ania 48
dou@@ 48
Jap@@ 48
trat@@ 48
wan@@ 48
line@@ 48
introd@@ 48
aug@@ 48
agn@@ 48
aver@@ 48
prefer@@ 48
associ@@ 48
Tit@@ 48
prior@@ 48
signific@@ 48
pare 48
traum@@ 48
capita 48
J 48
dat@@ 48
colleag@@ 48
igr@@ 48
carb@@ 47
underst@@ 47
ully 47
iP@@ 47
Gi@@ 47
tas@@ 47
tors 47
Frank 47
Char@@ 47
lad@@ 47
We@@ 47
yn 47
Chicago 47
metr@@ 47
atter@@ 47
idi@@ 47
reput@@ 47
Lar@@ 47
terr@@ 47
num@@ 47
conv@@ 47
deci@@ 47
enn@@ 47
mal 47
cast@@ 47
ado@@ 47
hot@@ 46
year-@@ 46
Ni@@ 46
Jim 46
controver@@ 46
interr@@ 46
Ven@@ 46
27 46
Tor@@ 46
Stanford 46
automat@@ 46
plast@@ 46
long-@@ 46
Dar@@ 46
2005 46
Martin 46
Rio 46
rout@@ 46
insul@@ 46
igg@@ 46
run@@ 46
Budd@@ 46
proced@@ 46
00 46
brow@@ 46
laun@@ 46
van 46
dge 46
emis@@ 46
test@@ 46
Nobel 46
aqu@@ 46
May@@ 46
complet@@ 46
gon@@ 45
PA 45
ped@@ 45
Pan@@ 45
Foundation 45
carri@@ 45
65 45
ine@@ 45
attem@@ 45
conce@@ 45
Bay 45
Pen@@ 45
Y 45
gent@@ 45
dren 45
daugh@@ 45
ura 45
diffic@@ 45
Bl@@ 45
deep@@ 45
lar@@ 45
ren 45
orient@@ 45
candi@@ 45
bo 45
una 45
ko 45
titu@@ 45
.C. 45
nom@@ 44
Ghana 44
oul@@ 44
milli@@ 44
monit@@ 44
Island 44
Bang 44
Gen@@ 44
Cre@@ 44
contribu@@ 44
tually 44
ff 44
simil@@ 44
limit@@ 44
Que@@ 44
aggress@@ 44
ridic@@ 44
Bang@@ 44
Mac@@ 44
erv@@ 44
Wom@@ 44
weap@@ 44
protoc@@ 44
GPS 44
script 44
consu@@ 44
devast@@ 44
obi@@ 44
diplom@@ 44
temper@@ 44
ora 43
Oxford 43
hardware 43
diverse 43
ello 43
shock 43
At@@ 43
za 43
osc@@ 43
obes@@ 43
gue 43
ort 43
open-source 43
Pol@@ 43
biot@@ 43
emerge 43
inci@@ 43
swit@@ 43
web@@ 43
quest@@ 43
dle 43
ego 43
Den@@ 43
Mark 43
fast@@ 43
laser 43
SA 43
Andre@@ 43
eded 43
DH 43
2011 43
é@@ 43
Haiti 42
micro-@@ 42
Microsoft 42
viv@@ 42
bin@@ 42
19 42
Alzheimer 42
fig@@ 42
ari 42
mach@@ 42
cer 42
ou 42
audio 42
copi@@ 42
“ 42
” 42
ani 41
ime 41
orb@@ 41
compan@@ 41
database 41
fort 41
Yor@@ 41
speci@@ 41
phy@@ 41
iss@@ 41
ech 41
agenda 41
what@@ 41
blog 41
q@@ 41
gover@@ 41
moder@@ 41
ardo 41
Econom@@ 41
photograp@@ 41
trend 41
metabol@@ 41
Str@@ 41
alter@@ 41
curr@@ 41
oty@@ 41
conc@@ 41
alth 41
Hollywood 41
Es@@ 41
cen@@ 41
Ever@@ 41
ali 41
analog@@ 41
Phili@@ 41
co 41
lung@@ 41
oxy@@ 41
ellow 41
BF 41
Higgs 41
Smith 40
tub@@ 40
2003 40
2004 40
A. 40
29 40
techn@@ 40
Apple 40
preced@@ 40
mean@@ 40
arm@@ 40
Mos@@ 40
feder@@ 40
33 40
zo@@ 40
decis@@ 40
super-@@ 40
clear@@ 40
astero@@ 40
Ap@@ 40
follo@@ 40
fan 40
commun@@ 40
lec@@ 40
estin@@ 40
agric@@ 40
well@@ 40
respons@@ 40
manif@@ 40
excit@@ 40
prosper@@ 40
ord@@ 40
Sal@@ 40
health@@ 40
inting 40
toc@@ 40
truc@@ 39
ebody 39
tent@@ 39
Gates 39
with@@ 39
ply 39
San@@ 39
elev@@ 39
consul@@ 39
ato 39
ird 39
curios@@ 39
consequ@@ 39
ug 39
25@@ 39
tra 39
Bal@@ 39
Ti@@ 39
Indi@@ 39
pace 39
Hy@@ 39
dings 39
ade@@ 39
fam@@ 39
interpret@@ 39
mas@@ 39
anticip@@ 39
ula 39
Cur@@ 39
Tex@@ 39
Ev@@ 39
legit@@ 38
automo@@ 38
ae 38
Can@@ 38
rand@@ 38
Ah 38
favor@@ 38
sci@@ 38
event@@ 38
bile 38
confron@@ 38
.com 38
Sk@@ 38
Florida 38
diff@@ 38
Steven 38
au 38
26 38
monitor@@ 38
2012 38
fut@@ 38
phil@@ 38
cosm@@ 38
i-@@ 38
The@@ 38
legisl@@ 38
bloc@@ 38
accid@@ 38
gir@@ 38
dur@@ 38
gin@@ 38
tea 38
civ@@ 38
approv@@ 38
Der@@ 38
ario 38
RI@@ 38
oresc@@ 38
sue 38
Na@@ 38
oma 38
Bush 37
lev@@ 37
ich@@ 37
industr@@ 37
Lou@@ 37
teach@@ 37
Sen@@ 37
ould 37
astr@@ 37
Jones 37
gan@@ 37
edia 37
cust@@ 37
invas@@ 37
Ray 37
scan@@ 37
gig@@ 37
mand@@ 37
eni@@ 37
ala 37
nutr@@ 37
War@@ 37
ED 37
secre@@ 37
chie@@ 37
genoci@@ 37
entrepren@@ 37
discrim@@ 37
intens@@ 37
omo 37
eda 37
cis@@ 37
brut@@ 36
800 36
beautif@@ 36
deforest@@ 36
aster 36
32 36
din@@ 36
Ben 36
Uganda 36
Im@@ 36
amor@@ 36
sey 36
pire 36
rar@@ 36
kins 36
abor@@ 36
Rec@@ 36
ela 36
elimin@@ 36
knowle@@ 36
Austr@@ 36
Dev@@ 36
enz@@ 36
les@@ 36
Fl@@ 36
dic@@ 36
noc@@ 36
fair@@ 36
fess@@ 36
tili@@ 36
scr@@ 36
ini 36
utt@@ 36
baseball 36
bab@@ 36
perf@@ 36
immen@@ 35
put@@ 35
tific@@ 35
tin@@ 35
club 35
dialog@@ 35
eleg@@ 35
95 35
Tim 35
cardi@@ 35
ule 35
camp@@ 35
heal@@ 35
Ho@@ 35
BC 35
lik@@ 35
22 35
seem@@ 35
coc@@ 35
assi@@ 35
territ@@ 35
Manhattan 35
rag@@ 35
sper@@ 35
otta 35
prev@@ 35
li 35
Isra@@ 35
stere@@ 35
profession@@ 35
scho@@ 35
Wol@@ 35
penetr@@ 35
Tom 35
compassion@@ 35
consci@@ 35
satell@@ 35
origami 35
fra@@ 35
BI 35
regime 34
trou@@ 34
lit@@ 34
Ebola 34
cept 34
andon@@ 34
diab@@ 34
phenomen@@ 34
estr@@ 34
Mel@@ 34
lion 34
contempor@@ 34
ject 34
aggreg@@ 34
cond@@ 34
ito 34
atr@@ 34
ularly 34
bert 34
immer@@ 34
mit@@ 34
super 34
37 34
Nig@@ 34
adolesc@@ 34
efully 34
fate 34
umin@@ 34
Tas@@ 34
Braz@@ 34
scanner 34
otter@@ 34
bud@@ 33
85 33
infr@@ 33
Nel@@ 33
stom@@ 33
nutri@@ 33
cin@@ 33
frig@@ 33
0 33
23 33
onia 33
disturb@@ 33
2006 33
bis@@ 33
eria 33
ith 33
Mer@@ 33
rib@@ 33
quot@@ 33
urban@@ 33
oid 33
ami@@ 33
sb@@ 33
pec@@ 33
fri@@ 33
Cap@@ 33
tut@@ 33
ece 33
opera 33
file 33
incar@@ 33
eas@@ 33
anda 33
configur@@ 33
700 32
suffici@@ 32
seg@@ 32
batter@@ 32
individu@@ 32
energ@@ 32
ount 32
ki 32
sa 32
250 32
gn@@ 32
eve 32
spl@@ 32
newsp@@ 32
wav@@ 32
benef@@ 32
disp@@ 32
relig@@ 32
prob@@ 32
alternat@@ 32
Sc@@ 32
ring@@ 32
mo 32
plif@@ 31
immedi@@ 31
dop@@ 31
miner@@ 31
illa 31
uff@@ 31
illi@@ 31
model@@ 31
ouse 31
stu@@ 31
though@@ 31
philos@@ 31
tell@@ 31
ro 31
Ter@@ 31
rice 31
Sus@@ 31
soldi@@ 31
tif@@ 31
oll 31
ano 31
ques@@ 31
han 31
orchestra 31
tale 30
won@@ 30
ordin@@ 30
plat@@ 30
etn@@ 30
amin@@ 30
anz@@ 30
Secon@@ 30
termin@@ 30
extra@@ 30
Sm@@ 30
mic@@ 30
hai 30
sed@@ 30
traff@@ 30
ima 30
2,@@ 30
Nat@@ 30
Pur@@ 30
bili@@ 30
oug@@ 30
uno 30
cab@@ 30
mul@@ 30
wind@@ 30
eur@@ 30
pin@@ 30
itch@@ 30
Tes@@ 30
internet 30
smartphone 30
ara 29
Prob@@ 29
earli@@ 29
lood 29
Val@@ 29
tom 29
uman@@ 29
annu@@ 29
ulture 29
percep@@ 29
iced 29
chang@@ 29
tiv@@ 29
immun@@ 29
abil@@ 29
con 29
ambi@@ 28
mail 28
prol@@ 28
may@@ 28
reb@@ 28
é 28
phenom@@ 28
eo 28
soc@@ 28
rin@@ 28
Ha@@ 28
arriv@@ 28
probl@@ 28
gli@@ 28
preval@@ 28
bomb@@ 28
recl@@ 28
distingu@@ 28
regi@@ 28
ted@@ 28
digit@@ 28
elem@@ 28
materi@@ 28
fash@@ 28
pill@@ 28
glamour 28
Gh@@ 27
anch@@ 27
dimen@@ 27
ul 27
Dav@@ 27
vor@@ 27
odi@@ 27
Pre@@ 27
enorm@@ 27
minis@@ 27
urity 27
ender 27
bet@@ 27
sanit@@ 27
Vis@@ 27
contem@@ 27
rying 27
mers 27
dow@@ 27
corr@@ 27
ife 27
priv@@ 27
+ 27
sat@@ 27
uption 27
La 27
hus@@ 27
exercis@@ 27
princip@@ 27
altru@@ 27
ume 27
fon@@ 27
happ@@ 27
vulner@@ 27
Tran@@ 26
Pos@@ 26
zi@@ 26
iate 26
utili@@ 26
onica 26
bamb@@ 26
etti 26
sis 26
connec@@ 26
aer@@ 26
atten@@ 26
alia 26
hing 26
Acc@@ 26
tire 26
itute 26
anten@@ 26
aria 26
elle 26
Q 26
selves 26
vas@@ 26
olar@@ 26
zza 26
titles 26
strat@@ 26
tog@@ 26
tro 26
ware 26
password 26
know@@ 25
estate 25
ener@@ 25
ouldn 25
erra 25
there@@ 25
campa@@ 25
Chi@@ 25
nuc@@ 25
engine@@ 25
occup@@ 25
raph@@ 25
ittle 25
del 25
inging 25
Stu@@ 25
denly 25
cit@@ 25
releas@@ 25
democ@@ 25
infer@@ 25
ero@@ 25
issu@@ 25
presents 25
infin@@ 25
Mag@@ 25
isl@@ 25
ules 24
dio 24
san@@ 24
dela 24
elim@@ 24
gal@@ 24
prosp@@ 24
credi@@ 24
commerci@@ 24
combin@@ 24
ca 24
insist@@ 24
mone 24
eli 24
ema 24
alk 24
ni 24
destin@@ 24
ho 24
bra 24
hid@@ 24
Mol@@ 24
mes@@ 24
grave 24
ci 24
atmos@@ 24
Ru@@ 24
Afgh@@ 24
PI@@ 24
stabili@@ 23
year@@ 23
open-@@ 23
susta@@ 23
visit@@ 23
them@@ 23
pati@@ 23
Cos@@ 23
bot@@ 23
dot@@ 23
quel@@ 23
edom 23
Pub@@ 23
Au@@ 23
convinc@@ 23
á@@ 23
fantas@@ 23
ollywood 23
orit@@ 23
Mid@@ 23
ousness 23
rum@@ 23
pie 23
Not@@ 23
astron@@ 23
arre 23
ati 23
solutely 23
elabor@@ 22
Bec@@ 22
DP 22
aul 22
ao 22
ball@@ 22
tel@@ 22
onom@@ 22
ona 22
lingu@@ 22
veloc@@ 22
ril@@ 22
bust@@ 22
advant@@ 22
Prog@@ 22
HI@@ 22
Cam@@ 22
ella 22
inver@@ 22
responsi@@ 22
dice 22
etter 22
Tu@@ 22
ford 22
resul@@ 22
spir@@ 22
ita 22
sin 22
lass 22
aph@@ 22
impul@@ 22
LA 22
Joh@@ 22
guid@@ 22
cane 21
brilli@@ 21
inser@@ 21
tate 21
Far@@ 21
Ira@@ 21
ori 21
ada 21
ador@@ 21
asa 21
Pa@@ 21
requ@@ 21
beh@@ 21
amer@@ 21
chers 21
sever@@ 21
ross 21
aver 21
anci@@ 21
Fun@@ 21
catt@@ 21
ba 21
aste 21
Goog@@ 21
iti 21
complic@@ 21
inqu@@ 21
landsc@@ 21
erous 21
Ye@@ 21
NA@@ 21
imper@@ 21
udd@@ 21
cose 21
Inv@@ 20
remark@@ 20
Cer@@ 20
equili@@ 20
Z 20
sensi@@ 20
dispar@@ 20
NA 20
bec@@ 20
marg@@ 20
pub@@ 20
icals 20
organiz@@ 20
passion@@ 20
sale 20
nal@@ 20
diagn@@ 20
ll 20
drome 20
# 20
conqu@@ 20
urb@@ 20
evid@@ 20
pav@@ 20
ga 20
elo 20
ri 20
lem 20
prise 19
gie 19
tremend@@ 19
dimin@@ 19
cogn@@ 19
ua 19
ok 19
milit@@ 19
bat@@ 19
atric@@ 19
tribu@@ 19
vig@@ 19
USA 19
Imag@@ 19
vide@@ 19
oto 19
orch@@ 19
fa 19
econ@@ 19
dor@@ 19
nucle@@ 19
chie 19
Er@@ 19
quad@@ 19
Americ@@ 19
nd 19
gress@@ 18
pollo 18
itori@@ 18
pret@@ 18
labor@@ 18
alog@@ 18
ossi@@ 18
privileg@@ 18
pag@@ 18
geometr@@ 18
estern 18
Os@@ 18
ane@@ 18
Natur@@ 18
membr@@ 18
iment@@ 18
rete 18
pip@@ 18
fid@@ 18
uar@@ 18
cher@@ 18
dest@@ 18
mir@@ 18
Univer@@ 18
fatt@@ 18
presid@@ 18
enever 18
financi@@ 18
C. 18
All@@ 18
societ@@ 18
amma 18
cris@@ 18
ington 18
oce@@ 18
sani 18
cle@@ 17
obs 17
grow@@ 17
tril@@ 17
ld 17
Inst@@ 17
Pot@@ 17
industri@@ 17
ono 17
TE@@ 17
Mex@@ 17
impor@@ 17
anal@@ 17
solo 17
Av@@ 17
distribu@@ 17
scient@@ 17
viron@@ 17
ado 17
po 17
iva 17
raff@@ 17
Sub@@ 17
cod@@ 17
quant@@ 17
sof@@ 17
surger@@ 17
Ed 17
pas@@ 17
í@@ 17
nell 17
grou@@ 17
ã@@ 17
figh@@ 16
ween 16
illumin@@ 16
adul@@ 16
si 16
AI@@ 16
Ot@@ 16
specific@@ 16
cies 16
confer@@ 16
ond@@ 16
Prim@@ 16
Vol@@ 16
stare 16
capac@@ 16
prec@@ 16
tip@@ 16
ingu@@ 16
% 16
assu@@ 16
sia 16
dare 16
cred@@ 16
sedi@@ 16
ater@@ 16
Pak@@ 16
dal 16
acci@@ 16
insec@@ 16
etime 16
sco@@ 16
devel@@ 16
oughout 16
colleg@@ 16
themat@@ 16
earing 16
emo 16
child@@ 16
Reg@@ 16
_ 16
azz@@ 15
mov@@ 15
Eng@@ 15
ling@@ 15
stran@@ 15
itten 15
fan@@ 15
transi@@ 15
mare 15
pi 15
Guar@@ 15
esn 15
busin@@ 15
otto 15
ific 15
intell@@ 15
atur@@ 15
equip@@ 15
Mic@@ 15
oci@@ 15
Pass@@ 15
giv@@ 15
Amaz@@ 15
asc@@ 15
perspec@@ 15
Chr@@ 15
relev@@ 15
smart@@ 15
other@@ 15
uth 14
Ten@@ 14
unch 14
esi@@ 14
doll@@ 14
quick@@ 14
tec@@ 14
muc@@ 14
cum@@ 14
bru@@ 14
accor@@ 14
toss@@ 14
anzi 14
S. 14
etimes 14
zona 14
pathy 14
manu@@ 14
para@@ 14
izz@@ 14
Mart@@ 14
Ma 14
ospit@@ 14
adr@@ 14
sole 14
prog@@ 14
avail@@ 14
cultur@@ 14
marri@@ 13
superi@@ 13
GP@@ 13
ebook 13
lei 13
cellul@@ 13
incl@@ 13
eva 13
maj@@ 13
chi 13
usc@@ 13
commer@@ 13
Europ@@ 13
non 13
actly 13
ei 13
hav@@ 13
Cir@@ 13
merc@@ 13
ante 13
impe@@ 13
grap@@ 13
hundre@@ 13
tri 13
Bret@@ 13
onte 12
fiel@@ 12
ument@@ 12
stupi@@ 12
ki@@ 12
drug@@ 12
performan@@ 12
otog@@ 12
oi 12
respi@@ 12
domest@@ 12
orrow 12
salv@@ 12
provoc@@ 12
testim@@ 12
necess@@ 12
allev@@ 12
numer@@ 12
chil@@ 12
acco 12
Pu@@ 12
identific@@ 12
otten 12
eder@@ 12
laure@@ 12
indi 12
asso 12
mania 12
dove 12
ando 12
arch 12
thous@@ 12
ele@@ 12
Bos@@ 12
ico 12
utting 12
seri@@ 12
pist@@ 12
esse 12
capit@@ 11
Ok 11
esterday 11
sap@@ 11
trem@@ 11
) 11
ostr@@ 11
intellig@@ 11
com 11
Congr@@ 11
attent@@ 11
fu 11
pron@@ 11
rifi@@ 11
cia 11
vend@@ 11
coli 11
tum 11
oca 11
fame 11
Eur@@ 11
lumin@@ 11
wom@@ 11
ö@@ 11
demon@@ 11
tainly 11
progr@@ 11
ex 11
cano 11
effic@@ 11
CO@@ 11
esa 11
… 11
compr@@ 10
IT 10
Stan@@ 10
Ox@@ 10
dif@@ 10
trol@@ 10
Rich@@ 10
pian@@ 10
bio 10
datab@@ 10
abol@@ 10
tram@@ 10
bel 10
Ques@@ 10
telec@@ 10
alc@@ 10
bot 10
etr@@ 10
cc@@ 10
petrol@@ 10
ti 10
estra 10
apos@@ 10
call@@ 10
gia 10
legg@@ 10
eces 10
impar@@ 10
expens@@ 10
cerebr@@ 10
patter@@ 10
è@@ 10
etta 10
yond 10
Wiki@@ 10
ç@@ 10
asse 9
oppos@@ 9
stag@@ 9
cad@@ 9
senti@@ 9
nex@@ 9
pens@@ 9
bast@@ 9
diagnost@@ 9
trov@@ 9
orn@@ 9
infrastruc@@ 9
aga@@ 9
ult@@ 9
Ri@@ 9
dire 9
hic@@ 9
vant@@ 9
= 9
osa 9
inst 9
Da 9
oria 9
alg@@ 9
– 9
Dic@@ 9
ligence 9
K. 9
ometr@@ 9
wee@@ 9
unci@@ 9
omi 9
Div@@ 9
fin 9
ament@@ 9
Fac@@ 9
ael 9
ava 8
tot@@ 8
va 8
vest@@ 8
aro 8
lis@@ 8
univer@@ 8
cro 8
complex@@ 8
coff@@ 8
Angel@@ 8
influenza 8
quel 8
salute 8
anks 8
acquis@@ 8
Mess@@ 8
publ@@ 8
dine 8
pover@@ 8
abitu@@ 8
Europa 8
j 8
frat@@ 8
pes@@ 8
fum@@ 8
fund@@ 8
istan 8
Sem@@ 8
ende 8
ogn@@ 8
invis@@ 8
curi@@ 8
tech@@ 8
gel@@ 8
sta 8
lent@@ 8
Ha 8
iniz@@ 8
omas 8
uro 8
Prov@@ 8
succ@@ 8
Ris@@ 8
uce 8
ó@@ 8
pensate 7
combust@@ 7
Engli@@ 7
auto 7
cun@@ 7
endi@@ 7
osci@@ 7
duce 7
raid 7
mani@@ 7
elli 7
ili 7
consi@@ 7
km 7
lato 7
vin@@ 7
veg@@ 7
gratu@@ 7
esce 7
fort@@ 7
eser@@ 7
famili@@ 7
dimens@@ 7
Lon@@ 7
stud@@ 7
tir@@ 7
@ 7
Glob@@ 7
Ori@@ 7
Ric@@ 7
metaph@@ 7
sti@@ 7
sod@@ 7
ership 7
dipl@@ 7
ipot@@ 7
agna 7
medicin@@ 7
enom@@ 6
asn 6
evit@@ 6
etter@@ 6
uri 6
persona 6
nav@@ 6
zi 6
icip@@ 6
compass@@ 6
modific@@ 6
stamp@@ 6
Ci@@ 6
radic@@ 6
invit@@ 6
slow@@ 6
Harv@@ 6
aught 6
dise@@ 6
cere 6
preoccu@@ 6
nostr@@ 6
scul@@ 6
esi 6
eni 6
dip@@ 6
onda 6
demia 6
diment@@ 6
oro 6
dience 6
segre@@ 6
mi 6
alo 6
api 6
bli@@ 6
Pac@@ 6
eball 6
cres@@ 6
icare 6
mili@@ 6
nas@@ 6
Stre@@ 6
1000 6
iche 6
quadr@@ 6
zo 6
cost@@ 6
craz@@ 6
umi 6
vive 6
olo 6
cuc@@ 6
emo@@ 6
gamb@@ 6
sopr@@ 6
pa 6
Di 6
aper@@ 5
imi 5
intel@@ 5
amo 5
Il 5
orie 5
circa 5
ecolog@@ 5
had@@ 5
appre@@ 5
caff@@ 5
Cin@@ 5
fond@@ 5
Tube 5
allo 5
camer@@ 5
orge 5
r. 5
disper@@ 5
atrice 5
ermi 5
afr@@ 5
pren@@ 5
Ug@@ 5
enge 5
fantast@@ 5
abili@@ 5
assion 5
ida 5
endo 5
religi@@ 5
oso 5
della 5
ugu@@ 5
televis@@ 5
isi 5
dol@@ 5
eta 5
pia 5
ü@@ 5
gen 5
aia 5
sligh@@ 5
enta 5
guard@@ 5
^ 5
Af@@ 5
Fren@@ 5
ede 5
esto 5
mia 5
aggi@@ 5
erto 5
letter@@ 5
falli@@ 5
ä@@ 5
ricer@@ 5
pom@@ 5
influenz@@ 4
Fir@@ 4
your@@ 4
altr@@ 4
sala 4
000 4
You@@ 4
ini@@ 4
ON@@ 4
acter 4
ustr@@ 4
leav@@ 4
exer@@ 4
augh@@ 4
disci@@ 4
registr@@ 4
brill@@ 4
amento 4
tu 4
usi 4
uto 4
ente 4
odore 4
unte@@ 4
nem@@ 4
ó 4
certo 4
dirig@@ 4
trap@@ 4
pro 4
Bis@@ 4
etto 4
qual 4
brev@@ 4
q 4
mani 4
amour 4
figur@@ 4
gett@@ 4
microb@@ 4
propri@@ 4
tre 4
eno 4
esca 4
itchen 4
umane 4
scol@@ 4
vi 4
Phone 4
brio 4
eri 4
tempo 4
imbar@@ 4
dub@@ 4
lamp@@ 4
ñ@@ 4
istr@@ 4
Ve@@ 4
uti 4
rov@@ 4
deca@@ 4
vist@@ 4
Viv@@ 4
bi 4
Le 4
AID@@ 4
grandi@@ 4
evo 4
mese 4
Wash@@ 4
otte 4
him@@ 4
ché 4
ø@@ 4
princi@@ 4
í 4
á 4
Micros@@ 3
ben 3
usto 3
comfort@@ 3
strateg@@ 3
ć 3
carta 3
auto-@@ 3
tranqu@@ 3
icl@@ 3
affer@@ 3
ista 3
zzi 3
cresc@@ 3
avia 3
eto 3
erie 3
isco 3
Sap@@ 3
Mia 3
alla 3
crim@@ 3
confine 3
chio 3
usa 3
studi@@ 3
ggi@@ 3
Cali@@ 3
ifica 3
intendo 3
happen@@ 3
atura 3
posi@@ 3
qua 3
anni 3
concre@@ 3
etica 3
Francis@@ 3
anto 3
fo 3
teria 3
poch@@ 3
dorm@@ 3
sv@@ 3
ibu@@ 3
solut@@ 3
aco 3
utta 3
occhio 3
ii 3
victim@@ 3
ï@@ 3
oni 3
lavor@@ 3
egi@@ 3
ionale 3
essa 3
Grande 3
cola 3
inese 3
scu@@ 3
langu@@ 3
mont@@ 3
graf@@ 3
tware 3
forest@@ 3
tifici@@ 3
every@@ 3
Li 3
degre@@ 3
assimo 3
minus@@ 3
franc@@ 3
dov@@ 3
onde 3
assie 3
Á@@ 3
‘ 3
obvi@@ 3
́ 3
itori 3
parole 3
asi 3
Ander@@ 2
ù 2
isse 2
amera 2
crescendo 2
tess@@ 2
ered@@ 2
( 2
neath 2
izza 2
Ov@@ 2
avere 2
olly@@ 2
Sign@@ 2
hig@@ 2
preoccup@@ 2
tart@@ 2
atta 2
enda 2
compi@@ 2
splendi@@ 2
ught 2
parl@@ 2
tav@@ 2
diale 2
Eb@@ 2
oco 2
dite 2
aca 2
azzo 2
Ho 2
essi 2
Einste@@ 2
strum@@ 2
poche 2
Amer@@ 2
ricor@@ 2
locale 2
enti 2
presso 2
cellu@@ 2
oft 2
entre 2
razz@@ 2
ê@@ 2
quarti@@ 2
esist@@ 2
pedia 2
recuper@@ 2
agli@@ 2
tore 2
ascin@@ 2
rivel@@ 2
invi@@ 2
tina 2
conven@@ 2
Tut@@ 2
conten@@ 2
tradi@@ 2
arab@@ 2
dan@@ 2
Due 2
americ@@ 2
finale 2
achi@@ 2
respir@@ 2
cosa 2
rall@@ 2
pane 2
vite 2
music@@ 2
inspir@@ 2
anti 2
gli 2
whel@@ 2
vidu@@ 2
vivo 2
segu@@ 2
enzi@@ 2
oli 2
* 2
utr@@ 2
dn 2
idi 2
assa 2
equiv@@ 2
eti 2
² 2
ezza 2
perfor@@ 2
ici 2
parch@@ 2
Era 2
Presid@@ 2
beaut@@ 2
eca 2
sera 2
witter 2
perfect@@ 2
opo 2
Se 2
£ 2
stia 2
pero 2
erci 2
lead@@ 2
arsi 2
emi 2
Ec@@ 2
nipot@@ 2
inte@@ 2
abbi@@ 2
opportun@@ 2
este 2
iggs 2
esco 2
agne 2
spos@@ 1
sai 1
scat@@ 1
ammo 1
obb@@ 1
terra 1
pall@@ 1
pie@@ 1
Lav@@ 1
acca@@ 1
Per 1
globale 1
ambe 1
ulla 1
mortal@@ 1
haps 1
bandi@@ 1
detta 1
ichi 1
heim@@ 1
iste 1
ossi 1
ardi 1
affin@@ 1
bev@@ 1
agio 1
utto 1
letto 1
orso 1
tello 1
credo 1
izi@@ 1
mie 1
imo 1
avi 1
convin@@ 1
igli@@ 1
control@@ 1
relation@@ 1
â@@ 1
torn@@ 1
risp@@ 1
ecos@@ 1
rei 1
cio 1
isti 1
abile 1
colle@@ 1
arlo 1
proteg@@ 1
avo 1
simile 1
Con 1
assi 1
rius@@ 1
offer@@ 1
recu@@ 1
vul@@ 1
razi@@ 1
orri@@ 1
otten@@ 1
Tu 1
Sono 1
ochi 1
sei 1
impression@@ 1
Hai 1
ele 1
musica 1
autor@@ 1
vinc@@ 1
evi 1
mezz@@ 1
Uno 1
aio 1
vita 1
otti 1
quotidi@@ 1
à 1
gio@@ 1
uso 1
scatt@@ 1
adre 1
eggi@@ 1
anza 1
arle 1
stead 1
stelle 1
送@@ 1
你@@ 1
葱 1
Ness@@ 1
trover@@ 1
spirito 1
ë@@ 1
Centr@@ 1
bibli@@ 1
eso 1
ô@@ 1
Chi 1
primo 1
storia 1
uom@@ 1
alto 1
occi@@ 1
ghi@@ 1
acqua 1
atto 1
etro 1
itivo 1
sf@@ 1
€ 1
su 1
dav@@ 1
glio 1
scop@@ 1
esta 1
esem@@ 1
anzi@@ 1
alz@@ 1
Dov@@ 1
morale 1
sangu@@ 1
lib@@ 1
stanza 1
ione 1
schema 1
dell 1
bre 1
evis@@ 1
bella 1
abit@@ 1
orith@@ 1
fino 1
æ@@ 1
nasc@@ 1
affron@@ 1
atica 1
verific@@ 1
ø 1
cic@@ 1
photog@@ 1
atti 1
Chic@@ 1
ě@@ 1
affid@@ 1
Un 1
atore 1
serie 1
Ne 1
vere 1
verg@@ 1
organis@@ 1
enni 1
vera 1
heimer 1
attan 1
Non 1
grazie 1
sto 1
æ 1
vu@@ 1
è 1
ieri 1
