, 121798
. 100304
the 78566
to 49899
of 46094
and 45380
a 43613
that 35467
in 32961
I 32543
is 26396
it 25342
you 24855
ing 23714
&apos;s 22269
we 21733
ed 20053
s 19913
h@@ 19555
es 19236
And 16809
this 16195
s@@ 15982
y 15020
e@@ 14867
on 14371
b@@ 14096
&quot; 14081
w@@ 13704
t@@ 13349
in@@ 13206
f@@ 12923
c@@ 12669
p@@ 12387
are 12200
was 11929
l@@ 11714
for 11487
an 11231
t 11115
have 10960
al 10714
er 10608
d@@ 10599
they 10488
-- 9945
a@@ 9851
m@@ 9761
with 9657
or 9592
ar@@ 9379
as 9365
be 9243
at 9242
can 9222
i@@ 9121
? 9047
one 8912
&apos;t 8900
y@@ 8853
re@@ 8778
all 8732
g@@ 8678
what 8662
So 8606
-@@ 8605
n@@ 8598
o@@ 8576
r@@ 8556
about 8455
al@@ 8239
ly 8088
at@@ 7955
st@@ 7826
d 7825
th@@ 7794
en@@ 7688
en 7452
not 7377
: 7355
S@@ 7325
ex@@ 7291
u@@ 7278
k@@ 7007
do 6954
ch@@ 6922
er@@ 6825
it@@ 6675
there 6612
&apos;re 6542
e 6529
as@@ 6520
people 6359
my 6339
like 6299
ity 6288
h 6261
It 6234
or@@ 6206
de@@ 6194
ation 6187
un@@ 6174
an@@ 6126
from 6125
M@@ 6112
ers 6028
so 6016
our 5953
ic@@ 5775
out 5743
but 5718
el@@ 5655
on@@ 5630
le@@ 5512
li@@ 5461
ul@@ 5356
just 5312
k 5300
We 5178
di@@ 5175
n 5166
ent 5165
The 5123
im@@ 5101
But 5006
se@@ 5004
A@@ 4971
these 4919
if 4909
he 4884
very 4884
me 4876
pl@@ 4865
con@@ 4859
ic 4849
us 4838
by 4799
v@@ 4797
em@@ 4768
is@@ 4699
up 4632
them 4618
et@@ 4578
tr@@ 4550
know 4526
going 4512
ts 4497
more 4476
O@@ 4469
am@@ 4454
ur@@ 4440
ap@@ 4425
when 4348
thing 4299
because 4297
p 4266
ate 4262
had 4245
B@@ 4218
sh@@ 4191
ac@@ 4160
C@@ 4160
ent@@ 4117
D@@ 4104
how 4099
ad@@ 4088
who 4078
ar 4069
E@@ 4036
their 4035
think 4028
get 4005
ou@@ 4000
ot@@ 3966
om@@ 3957
were 3954
see 3939
P@@ 3908
which 3895
op@@ 3893
ive 3863
your 3860
really 3830
et 3828
ro@@ 3819
il@@ 3802
ec@@ 3708
would 3704
&apos;ve 3665
H@@ 3647
ma@@ 3629
m 3603
os@@ 3582
here 3545
ks 3544
time 3534
ence 3520
ds 3514
world 3500
G@@ 3490
&apos;m 3489
ad 3464
way 3460
th 3456
L@@ 3446
where 3432
ies 3426
age 3411
has 3400
king 3391
T@@ 3363
se 3363
then 3358
able 3344
This 3323
pr@@ 3300
You 3300
ter@@ 3298
ta@@ 3296
act@@ 3259
ure 3254
res@@ 3247
us@@ 3220
le 3217
some 3210
don 3204
actually 3200
est 3199
wor@@ 3198
into 3174
ol@@ 3151
F@@ 3128
j@@ 3094
su@@ 3078
ig@@ 3073
years 3071
es@@ 3067
ri@@ 3060
ag@@ 3051
ion 3039
cl@@ 3035
ra@@ 3028
sp@@ 3021
will 2972
gr@@ 2967
now 2958
ce 2947
1@@ 2946
ph@@ 2931
me@@ 2926
R@@ 2920
ely 2918
things 2916
lo@@ 2911
qu@@ 2903
go 2890
other 2885
per@@ 2883
ions 2876
ab@@ 2836
W@@ 2827
N@@ 2825
ents 2824
be@@ 2821
Now 2813
could 2796
iv@@ 2779
want 2767
ch 2765
been 2697
They 2692
for@@ 2678
ne@@ 2676
ge 2668
com@@ 2664
make 2658
ical 2646
oun@@ 2627
ally 2622
ine 2607
ice 2598
ut@@ 2590
w 2569
str@@ 2542
wh@@ 2532
most 2503
ted 2477
said 2459
our@@ 2456
ked 2452
over 2448
than 2439
ay 2437
inter@@ 2435
ated 2434
those 2431
l 2429
something 2418
ir@@ 2417
right 2411
ev@@ 2408
av@@ 2393
work 2369
to@@ 2367
ous 2345
I@@ 2319
much 2305
even 2302
no 2291
new 2287
first 2277
and@@ 2264
J@@ 2263
ite 2261
g 2242
mo@@ 2234
tion 2215
also 2206
got 2192
ans 2191
his 2164
ess@@ 2153
little 2129
ment 2122
two 2122
ded 2113
ther 2110
say 2105
gu@@ 2104
back 2102
In 2101
look 2096
f 2091
That 2086
x@@ 2084
life 2084
her 2064
only 2059
oc@@ 2058
ess 2048
ble 2038
ist@@ 2038
we@@ 2038
What 2019
br@@ 2017
par@@ 2017
she 2012
comp@@ 2006
si@@ 2004
old 2002
if@@ 2002
mon@@ 1993
ed@@ 1977
ome 1974
A 1971
min@@ 1970
il 1957
x 1954
um@@ 1951
many 1929
Th@@ 1916
need 1912
its 1903
lot 1902
take 1891
buil@@ 1889
id@@ 1889
te@@ 1888
he@@ 1874
sc@@ 1861
come 1826
pi@@ 1820
rec@@ 1813
po@@ 1812
ard 1809
ill@@ 1797
day 1794
kind 1790
pre@@ 1786
tur@@ 1782
ear@@ 1766
ding 1762
around 1755
did 1750
als 1745
any 1739
ws 1738
every@@ 1729
use 1726
There 1713
uc@@ 1709
bi@@ 1707
og@@ 1706
ever 1706
through 1706
good 1705
car@@ 1701
ti@@ 1698
&apos;ll 1693
am 1686
ob@@ 1677
down 1671
ture 1667
ber 1664
different 1661
dr@@ 1650
z@@ 1649
pos@@ 1648
b 1647
ast 1642
pro@@ 1634
ight 1633
bo@@ 1633
bl@@ 1622
ant 1619
sol@@ 1609
att@@ 1598
end 1581
ook 1575
; 1572
sur@@ 1568
o 1567
rel@@ 1564
c 1562
ating 1557
ect@@ 1551
el 1550
fe@@ 1550
same 1549
ional 1543
every 1538
ations 1535
He 1531
igh@@ 1526
K@@ 1526
0@@ 1526
ect 1523
ong 1520
Well 1519
being 1517
happen@@ 1517
ary 1512
lear@@ 1498
put 1493
If 1489
ci@@ 1484
ion@@ 1480
ors 1470
body 1469
side 1466
ful 1465
ey 1464
all@@ 1458
self 1458
doing 1457
au@@ 1454
ous@@ 1454
Y@@ 1452
bec@@ 1448
Ch@@ 1447
any@@ 1433
ons 1413
2@@ 1403
ets 1397
called 1396
own 1392
cor@@ 1375
over@@ 1371
ke 1371
pe@@ 1370
ough 1367
bas@@ 1364
pic@@ 1361
ame 1359
ple 1359
ays 1356
made 1355
vi@@ 1355
ood 1350
percent 1339
ates 1338
sim@@ 1336
ned 1335
cre@@ 1333
♫ 1332
sen@@ 1331
ory 1331
no@@ 1330
ver@@ 1328
change 1322
talk 1314
ning 1307
three 1302
well 1298
&apos;d 1298
spec@@ 1296
ist 1294
ing@@ 1294
iz@@ 1294
ast@@ 1291
ance 1291
der 1289
des@@ 1286
try 1286
tell 1285
oo@@ 1274
sy@@ 1262
Wh@@ 1254
loo@@ 1250
tal@@ 1249
human 1248
year 1244
why 1244
didn 1238
.@@ 1233
ell@@ 1231
ty 1227
dis@@ 1226
eng@@ 1224
find 1222
kes 1221
soci@@ 1221
TED 1217
ose 1210
fin@@ 1209
fact 1199
sho@@ 1198
ave 1197
ace 1197
used 1196
ste@@ 1196
idea 1193
fl@@ 1190
today 1189
ems 1186
wr@@ 1185
col@@ 1183
cr@@ 1176
ically 1170
tim@@ 1170
let 1168
ass@@ 1167
mov@@ 1165
sm@@ 1162
red 1159
ces 1150
ics 1147
should 1145
pat@@ 1138
ia 1137
gre@@ 1135
man@@ 1135
res 1135
low 1135
ings 1132
hav@@ 1132
after 1130
started 1126
with@@ 1125
better 1124
la@@ 1123
plan@@ 1115
happ@@ 1115
der@@ 1113
olog@@ 1111
ter 1106
do@@ 1105
ound 1097
ay@@ 1097
last 1095
gen@@ 1093
place 1090
before 1088
id 1087
est@@ 1086
great 1086
nat@@ 1085
wing 1085
might 1085
ase 1085
ep@@ 1083
ins 1082
In@@ 1077
important 1077
give 1074
5 1073
acc@@ 1073
problem 1070
Thank 1070
tu@@ 1070
ici@@ 1069
thought 1064
never 1063
go@@ 1055
hear@@ 1052
st 1051
bil@@ 1050
commun@@ 1049
off 1047
int@@ 1047
fa@@ 1043
another 1042
ily 1040
ove 1040
story 1038
went 1035
ands 1029
stud@@ 1029
him 1029
still 1029
ago 1028
co@@ 1028
course 1027
fam@@ 1026
od@@ 1024
por@@ 1023
kno@@ 1023
pa@@ 1023
big 1019
contr@@ 1018
ach@@ 1017
coun@@ 1013
gro@@ 1012
real@@ 1011
ke@@ 1010
water 1008
vis@@ 1004
inv@@ 1001
U@@ 1001
read@@ 1000
show 1000
tri@@ 998
loc@@ 998
few 996
part 995
end@@ 993
ition 992
ust 992
bit 990
together 986
jo@@ 985
ars 984
vir@@ 983
stu@@ 983
ps 981
peri@@ 981
un 980
imag@@ 978
tre@@ 978
gi@@ 978
mar@@ 978
ution 976
,000 974
eb@@ 973
num@@ 973
ep 972
bot@@ 971
ists 971
can@@ 969
brain 969
St@@ 967
start 966
ris@@ 963
aut@@ 962
beg@@ 962
ying 961
r 961
system 960
data 955
cer@@ 954
came 953
ese 953
does 950
Al@@ 950
rit@@ 949
sion 947
ile 947
again 944
af@@ 943
possi@@ 941
next 940
V@@ 940
cit@@ 937
tra@@ 937
fi@@ 933
When 932
sk@@ 932
0 930
each 930
ack 930
produc@@ 925
4@@ 923
ell 921
ities 921
between 920
less 920
fun@@ 920
ting 914
sci@@ 911
ue 909
ope 909
technology 907
act 906
How 905
too 905
trans@@ 905
bu@@ 903
ere 903
&apos; 903
3@@ 902
found 898
Talk 896
women 896
form@@ 896
bre@@ 895
mean 890
ide@@ 886
wer 886
19@@ 884
ft 875
de 873
looking 870
chang@@ 870
fri@@ 870
liv@@ 867
Un@@ 864
rap@@ 860
ves 859
aying 857
using 855
man 853
e-@@ 852
ited 851
ize 848
ach 847
war@@ 846
Because 845
wanted 844
pol@@ 844
giv@@ 844
point 844
ong@@ 841
Subtitles 840
Transcript 840
long 840
understand 840
wn 839
ial 838
up@@ 837
some@@ 836
doesn 834
econom@@ 834
ms 828
spe@@ 827
5@@ 826
ement 825
mil@@ 825
les 825
fr@@ 824
secon@@ 824
ject 823
dre@@ 823
love 822
gener@@ 820
ef@@ 819
sort 818
example 818
cent@@ 813
light 813
done 812
ative 811
ater 811
disc@@ 811
question 810
call 810
mus@@ 810
ov@@ 809
ill 807
som@@ 805
live 805
ably 801
ized 801
help 801
ire 799
out@@ 799
vol@@ 797
ros@@ 796
ang@@ 796
ther@@ 795
person 795
10 794
working 793
ten@@ 792
power 789
so@@ 789
away 788
reas@@ 785
ns 784
hum@@ 783
ne 782
school 782
esting 781
ness 781
air 778
may 778
selves 777
heal@@ 777
real 776
8@@ 776
mark@@ 775
trying 774
! 771
ore 769
tru@@ 769
abil@@ 769
always 769
proc@@ 768
eff@@ 767
children 766
sup@@ 766
form 758
million 757
anim@@ 755
arg@@ 755
itt@@ 748
ects 747
ve 746
whole 746
thinking 745
um 743
stor@@ 742
country 740
az@@ 740
prot@@ 740
ular 740
sub@@ 739
cap@@ 738
information 737
wer@@ 736
cur@@ 735
ask 732
ain 731
rem@@ 731
ism 731
develop@@ 730
star@@ 730
room 730
four 729
feel 729
believe 728
struc@@ 728
may@@ 727
mom@@ 726
face 726
kids 724
ale 723
ili@@ 723
ends 722
00 720
pub@@ 719
del@@ 719
ouldn 718
coll@@ 718
line 717
tries 715
pres@@ 715
my@@ 714
off@@ 713
ys 712
sa@@ 709
not@@ 708
ind 707
create 705
6@@ 703
ans@@ 703
inn@@ 703
hal@@ 702
dic@@ 702
mis@@ 700
pen@@ 700
ise 698
doll@@ 696
gover@@ 696
sel@@ 696
od 694
lan@@ 693
pt 692
ind@@ 692
energ@@ 690
dem@@ 688
9@@ 686
fut@@ 684
partic@@ 683
ran@@ 681
ones 678
prob@@ 676
ide 674
gett@@ 674
design 671
of@@ 671
the@@ 671
iness 669
2 667
organ@@ 665
7@@ 664
ord@@ 663
press@@ 663
mat@@ 659
bus@@ 658
land 655
ot 655
part@@ 654
sec@@ 653
ways 650
prov@@ 648
art@@ 648
ship 647
cul@@ 646
ment@@ 644
ick@@ 644
ari@@ 641
ry 640
bor@@ 638
ey@@ 638
hel@@ 636
comm@@ 635
per 635
riv@@ 633
univer@@ 630
i 629
ser@@ 626
respon@@ 626
sign@@ 626
serv@@ 624
fol@@ 623
mor@@ 622
ually 619
care 619
ah 618
reg@@ 616
sing@@ 616
val@@ 605
pret@@ 602
differ@@ 601
ol 600
inst@@ 600
An@@ 599
Africa 597
lead@@ 597
glob@@ 596
cu@@ 595
ack@@ 590
1 588
sum@@ 587
ak@@ 584
tw@@ 582
ff@@ 579
20 578
lig@@ 578
cell@@ 578
mag@@ 578
te 575
nor@@ 574
case 574
cos@@ 573
K 573
scient@@ 571
No 568
cont@@ 568
fig@@ 566
lion 566
educ@@ 565
spi@@ 564
pop@@ 562
lu@@ 561
eg@@ 561
deci@@ 559
son 552
gh@@ 551
ca@@ 550
gg@@ 548
chan@@ 543
ree 543
ce@@ 538
desig@@ 538
probl@@ 537
Amer@@ 537
ze 536
fis@@ 533
50 530
fron@@ 530
chil@@ 530
evol@@ 529
med@@ 529
ody 527
prof@@ 526
ether 526
lin@@ 526
polit@@ 525
itu@@ 520
far 520
computer 517
leg@@ 515
20@@ 512
succ@@ 512
anc@@ 512
ant@@ 510
cam@@ 508
mem@@ 508
ade 504
8 502
S 500
ug@@ 500
dia 492
sor@@ 490
ina 490
clu@@ 489
arch@@ 488
ool 488
doc@@ 486
prog@@ 484
under@@ 484
4 482
person@@ 481
hap@@ 481
om 481
du@@ 480
New 477
ber@@ 476
ric@@ 475
&#93; 473
&#91; 471
ut 470
’ 470
lim@@ 466
ow 465
chi@@ 465
rat@@ 462
fer@@ 462
qual@@ 461
3 461
sic@@ 457
ece 455
ought 454
equ@@ 449
ner 447
sin@@ 444
30 444
incredi@@ 443
200@@ 442
pass@@ 441
app@@ 441
re 440
complet@@ 439
fac@@ 438
aff@@ 438
ea 438
incre@@ 436
7 434
Internet 434
materi@@ 433
pan@@ 433
oug@@ 432
inf@@ 430
met@@ 430
individu@@ 428
del 427
fre@@ 426
fil@@ 422
underst@@ 421
... 419
9 419
ole 418
ard@@ 418
wom@@ 417
aga@@ 416
dev@@ 414
Ar@@ 413
ank 413
nec@@ 413
quest@@ 411
6 411
rac@@ 409
oll@@ 408
ie 407
America 403
tan@@ 400
natur@@ 400
state 398
neur@@ 398
bar@@ 395
cond@@ 394
— 391
ane 390
mic@@ 389
fel@@ 389
oce@@ 389
utt@@ 387
video 386
ve@@ 385
cas@@ 385
den@@ 385
fu@@ 383
fort@@ 383
mot@@ 380
ogn@@ 379
sch@@ 379
ht 379
u 377
ott@@ 376
100 374
raz@@ 372
comput@@ 372
oper@@ 371
innov@@ 369
ever@@ 368
diffic@@ 366
ru@@ 365
ific@@ 364
hi@@ 362
D 362
inc@@ 360
lif@@ 358
sist@@ 358
ai@@ 357
opportun@@ 356
cat@@ 355
dig@@ 354
ident@@ 352
Con@@ 350
plic@@ 348
prop@@ 348
mos@@ 348
vent@@ 346
tem@@ 346
mess@@ 344
viol@@ 342
wit@@ 342
mol@@ 341
men@@ 339
int 339
trem@@ 337
pot@@ 337
beli@@ 336
cir@@ 332
ute 332
creat@@ 331
ori@@ 327
alk 327
ee 325
ub@@ 325
dur@@ 325
ordin@@ 324
dist@@ 323
emat@@ 323
decis@@ 322
mer@@ 321
thr@@ 320
V 317
non@@ 317
bel@@ 316
far@@ 315
ben@@ 313
technolog@@ 309
ustr@@ 308
ni@@ 307
cis@@ 305
shi@@ 305
defin@@ 304
consi@@ 302
iver@@ 298
contin@@ 295
abor@@ 292
tel@@ 291
media 288
aver@@ 285
entr@@ 285
da 285
cour@@ 284
intr@@ 284
ren@@ 281
present@@ 280
era 279
fo@@ 279
inci@@ 279
bra@@ 276
distr@@ 275
T 272
aid 272
z 271
ople 270
ye@@ 270
pu@@ 270
que 269
year@@ 267
amb@@ 265
Z@@ 262
compl@@ 262
wi@@ 261
♪ 260
exam@@ 257
super@@ 257
ause 255
M 254
ld 253
gli@@ 252
B 251
cel@@ 251
prim@@ 249
C 248
G 246
pas@@ 243
Be@@ 243
,@@ 242
tech@@ 241
ich 237
wan@@ 233
diver@@ 231
dom@@ 230
centr@@ 228
las@@ 227
ero 225
dio 224
viv@@ 224
Ne@@ 224
gra@@ 220
mal@@ 220
perc@@ 220
fine 219
ament@@ 219
Afr@@ 218
org@@ 217
la 217
P 216
pros@@ 216
program@@ 215
ven@@ 213
necess@@ 211
ir 210
erg@@ 210
eme 209
eve 206
tit@@ 206
ould 199
sal@@ 198
mi@@ 197
cin@@ 196
stem 194
ma 192
O 191
vic@@ 191
lun@@ 190
sia 190
call@@ 190
ho 189
tra 187
io 185
devel@@ 182
importan@@ 181
amp@@ 178
R 177
pens@@ 176
det@@ 176
fore 175
port@@ 175
bile 174
agg@@ 174
sent@@ 173
tor@@ 173
cal@@ 172
ana 168
ta 168
agn@@ 168
nu@@ 167
Per@@ 166
sett@@ 165
ultim@@ 165
continu@@ 164
fic@@ 164
/ 164
ene 161
TE@@ 161
tes@@ 156
ett@@ 154
ret@@ 154
zz@@ 152
oday 150
fir@@ 150
alc@@ 150
gn@@ 148
atter@@ 148
pun@@ 145
ica 144
strum@@ 143
thin@@ 142
ai 141
eri@@ 138
quan@@ 136
sul@@ 134
L 134
H 133
insi@@ 131
quot@@ 131
don@@ 131
lob@@ 131
econ@@ 130
oul@@ 129
net 126
rom 126
ram@@ 126
asp@@ 125
trop@@ 124
pren@@ 123
F 121
ids 121
ogg@@ 119
ha 119
attr@@ 118
occu@@ 117
pon@@ 117
lav@@ 117
&apos;@@ 116
E 116
capac@@ 115
rim@@ 115
na 114
fos@@ 114
co 114
vel@@ 112
X@@ 108
arriv@@ 106
abb@@ 105
Inter@@ 103
ques@@ 101
Qu@@ 101
nel 101
$ 100
tec@@ 99
pag@@ 98
ano 98
q 97
etter 96
sem@@ 95
inform@@ 94
rig@@ 94
vide@@ 93
hi 93
N 92
ola 90
lo 88
aria 88
mac@@ 84
ness@@ 83
ada 83
ico 83
- 81
000 80
propr@@ 80
di 80
libr@@ 78
scri@@ 77
W 77
due 76
nel@@ 73
ult@@ 71
Q@@ 70
ita 70
anda 69
acqu@@ 69
nolog@@ 65
Come 64
ete 64
guar@@ 64
iti 63
ra 63
gran@@ 63
dir@@ 60
ani 59
ont@@ 59
indi@@ 59
v 59
ino 58
&@@ 57
pers@@ 57
ette 56
ata 56
rend@@ 55
U 54
che 53
fat@@ 53
via 52
X 51
fare 49
sar@@ 49
tras@@ 49
trat@@ 48
ura 48
J 48
ato 46
za 45
Pen@@ 45
Y 45
dren 45
bo 45
una 45
script 44
ora 43
ello 43
é@@ 43
ari 42
li 42
ou 42
“ 42
” 42
q@@ 41
ali 41
diff@@ 38
ario 38
ona 36
cc@@ 36
ini 36
rag@@ 35
sper@@ 35
ito 34
bis@@ 33
mo 33
tut@@ 33
sa 32
altr@@ 31
ro 31
uno 30
con 29
ambi@@ 28
zi@@ 28
reb@@ 28
é 28
ca 28
zza 28
bet@@ 27
+ 27
elle 27
La 27
fon@@ 27
Tran@@ 26
bamb@@ 26
etti 26
Q 26
titles 26
tog@@ 26
ci 26
tro 26
erra 25
ittle 25
ema 25
ni 25
ori 24
Cos@@ 23
quel@@ 23
á@@ 23
ati 23
Bec@@ 22
dice 22
cose 21
Z 20
ll 20
# 20
lem 20
fa 19
nd 19
si 18
rete 18
ono 17
impor@@ 17
solo 17
po 17
iva 17
Sub@@ 17
Ed 17
í@@ 17
ã@@ 17
ween 16
% 16
dal 16
emo 16
_ 16
pi 15
esn 15
chi 15
otto 15
muc@@ 14
izz@@ 14
Ma 14
eva 13
non 13
ei 13
ante 13
tri 13
oi 12
indi 12
ti 12
dove 12
ando 12
esse 12
sap@@ 11
cres@@ 11
) 11
ostr@@ 11
uto 11
mi 11
mia 11
cia 11
ö@@ 11
… 11
pian@@ 10
Ques@@ 10
apos@@ 10
impar@@ 10
è@@ 10
etta 10
ç@@ 10
nex@@ 9
trov@@ 9
dire 9
= 9
– 9
ava 8
enza 8
quel 8
j 8
pes@@ 8
sta 8
iniz@@ 8
uro 8
ó@@ 8
endo 7
ili 7
@ 7
persona 6
nostr@@ 6
esi 6
oro 6
chio 6
mili@@ 6
iche 6
olo 6
sopr@@ 6
amo 5
Il 5
circa 5
fond@@ 5
allo 5
oso 5
etto 5
della 5
eta 5
ü@@ 5
guard@@ 5
^ 5
eri 5
ede 5
aggi@@ 5
ä@@ 5
ricer@@ 5
amento 4
ente 4
ó 4
imo 4
tre 4
vi 4
tempo 4
ñ@@ 4
uti 4
Le 4
evo 4
ché 4
ø@@ 4
í 4
á 4
ć 3
ista 3
zzi 3
alla 3
usa 3
ifica 3
anni 3
sv@@ 3
ï@@ 3
oni 3
lavor@@ 3
ande 3
scu@@ 3
ivo 3
dov@@ 3
Á@@ 3
‘ 3
́ 3
asi 3
ù 2
( 2
avere 2
parl@@ 2
oco 2
zzo 2
Ho 2
essi 2
enti 2
esso 2
entre 2
ê@@ 2
agli@@ 2
cosa 2
anti 2
gli 2
anza 2
vidu@@ 2
segu@@ 2
enzi@@ 2
oli 2
* 2
dn 2
² 2
ici 2
opo 2
Se 2
£ 2
arsi 2
emi 2
abbi@@ 2
este 2
Per 1
credo 1
igli@@ 1
â@@ 1
rei 1
cio 1
abile 1
avo 1
rius@@ 1
Sono 1
sei 1
vita 1
à 1
adre 1
送@@ 1
你@@ 1
葱 1
ë@@ 1
ô@@ 1
primo 1
storia 1
uom@@ 1
acqua 1
etro 1
€ 1
su 1
dav@@ 1
glio 1
esem@@ 1
ione 1
fino 1
æ@@ 1
ø 1
ě@@ 1
Un 1
atore 1
Non 1
razie 1
æ 1
vu@@ 1
è 1
